the 7909
of 4285
and 2063
What 2036
are 1987
in 1401
is 1213
names 1136
all 1038
name 1012
that 988
with 948
number 921
Find 880
have 801
for 767
who 699
many 658
Show 600
How 595
than 576
each 547
by 483
most 477
List 454
a 406
average 375
first 361
Which 325
has 318
more 309
last 307
or 300
students 297
whose 280
not 274
? 270
id 250
total 234
different 230
ids 222
Return 220
type 220
. 216
order 209
at 205
to 201
customers 193
distinct 192
least 185
customer 180
which 179
Give 175
code 172
from 171
any 168
their 157
employees 147
me 146
Count 138
do 138
ordered 129
both 128
product 128
as 127
on 119
name, 118
there? 118
date 115
city 112
products 112
, 111
an 111
year 111
"? 109
maximum 107
named 107
price 107
department 106
s. 106
amount 105
s? 105
highest 104
does 102
age 100
course 100
student 100
". 99
descending 99
cities 97
For 96
3 95
one 92
players 92
two 92
dates 89
did 89
types 89
members 88
alphabetical 86
ascending 86
had 85
they 84
details 83
document 83
what 83
used 82
how 79
there 78
were 78
corresponding 77
country 77
order. 77
staff 77
description 76
was 75
largest 73
songs 73
people 72
after 71
have? 71
name. 69
phone 69
courses 68
higher 68
salary 67
companies 65
titles 65
between 63
countries 63
made 63
minimum 63
status 63
codes 62
employee 62
names. 62
faculty 61
sorted 61
above 60
common 60
rating 60
title 59
'? 58
2 58
full 58
top 58
some 56
company 55
es? 55
locations 55
rooms 55
list 54
location 54
s 54
where 53
Who 52
artists 52
been 52
documents 52
team 52
account 50
its 50
count 49
instructors 49
s, 49
wines 49
e? 48
either 48
es. 48
greater 48
room 48
es 47
less 47
names, 47
tracks 47
years 47
balance 46
before 46
ing 46
stations 46
"@@ 45
address 45
e. 45
party 45
project 45
claim 44
numbers 44
payment 44
produced 44
show 44
song 44
those 44
'@@ 43
authors 43
checking 43
lowest 43
movie 43
never 43
school 43
schools 43
but 42
enrollment 42
score 42
students? 42
departments 41
greatest 41
hours 41
club 40
colleges 40
ed 40
female 40
role 40
can 39
every 39
three 39
5 38
Please 38
accounts 38
below 38
market 38
order? 38
B@@ 37
located 37
no 37
across 36
building 36
email 36
film 36
games 36
information 36
movies 36
students. 36
1 35
id, 35
job 35
living 35
savings 35
start 35
times 35
A@@ 34
taught 34
we 34
'. 33
10 33
L@@ 33
artist 33
associated 33
college 33
department? 33
ed? 33
find 33
parties 33
races 33
state 33
M@@ 32
addresses 32
assigned 32
drivers 32
lower 32
without 32
C@@ 31
apartment 31
capacity 31
credit 31
id. 31
in? 31
live 31
male 31
member 31
opened 31
professors 31
ships 31
tourist 31
4 30
airport 30
descriptions 30
display 30
held 30
problems 30
station 30
y 30
1@@ 29
belong 29
card 29
catalog 29
e 29
f@@ 29
orders 29
participated 29
reported 29
word 29
100 28
author 28
contains 28
detail 28
e, 28
position 28
s@@ 28
zip 28
W@@ 27
among 27
color 27
letter 27
older 27
prices 27
apartments 26
buildings 26
class 26
counties 26
courses? 26
gender 26
i@@ 26
in. 26
method 26
phones 26
points 26
registered 26
P@@ 25
county 25
played 25
re@@ 25
recent 25
star 25
5. 24
Tell 24
aircrafts 24
airports 24
campus 24
end 24
enrolled 24
height 24
ids, 24
institution 24
mountains 24
oldest 24
policy 24
result 24
type. 24
under 24
votes 24
's 23
D@@ 23
G@@ 23
along 23
at@@ 23
attractions 23
budget 23
department. 23
founded 23
involved 23
player 23
population 23
received 23
resolution 23
return 23
revenue 23
routes 23
states 23
teach 23
temperature 23
transactions 23
users 23
1? 22
F@@ 22
S@@ 22
c@@ 22
clubs 22
d? 22
dorm 22
es, 22
fewest 22
flights 22
friends 22
president 22
projects 22
scientists 22
smaller 22
substring 22
taken 22
took 22
A 21
ID 21
ages 21
category 21
customers. 21
customers? 21
de@@ 21
er 21
er. 21
films 21
g@@ 21
over 21
papers 21
participate 21
play 21
rank 21
smallest 21
to? 21
type? 21
value 21
y? 21
00? 20
200@@ 20
channel 20
classes 20
delegates 20
driver 20
gas 20
it 20
music 20
opening 20
race 20
salaries 20
service 20
when 20
wrestlers 20
y. 20
00. 19
2000 19
5? 19
K@@ 19
State 19
a? 19
about 19
age. 19
allergy 19
date. 19
days 19
duration 19
expensive 19
game 19
invoice 19
listed 19
person 19
services 19
shared 19
t@@ 19
time 19
total? 19
transaction 19
won 19
working 19
year? 19
" 18
1. 18
20 18
In 18
United 18
aircraft 18
average? 18
branch 18
contain 18
cost 18
don't 18
dorms 18
grade 18
headquarters 18
items 18
level 18
popular 18
starting 18
teachers 18
technicians 18
trips 18
volumes 18
2010? 17
San 17
al 17
al@@ 17
bigger 17
birth 17
distance 17
enzymes 17
ers. 17
events 17
got 17
hire 17
in@@ 17
major 17
max 17
organization 17
price. 17
settlement 17
teams 17
unit 17
year. 17
younger 17
youngest 17
1000 16
2000? 16
2@@ 16
50 16
H@@ 16
Red 16
Sort 16
When 16
a. 16
a@@ 16
albums 16
available 16
average, 16
called 16
candidate 16
climbers 16
code. 16
contact 16
correspond 16
d. 16
directors 16
district 16
documents. 16
documents? 16
e@@ 16
entry 16
er? 16
er@@ 16
ers 16
ers? 16
genre 16
has? 16
host 16
hosts 16
id? 16
longest 16
ly 16
money 16
n@@ 16
nationality 16
per 16
personal 16
pilots 16
playing 16
products. 16
purchased 16
region 16
results 16
scores 16
size 16
sort 16
video 16
balances 15
bank 15
body 15
branches 15
classroom 15
code, 15
devices 15
director 15
ed. 15
election 15
entrepreneurs 15
fee 15
larger 15
maximum, 15
mean 15
office 15
physicians 15
published 15
reviewer 15
se@@ 15
shortest 15
speed 15
store 15
t 15
track 15
types. 15
work 15
workshop 15
' 14
(sex 14
10@@ 14
2009 14
Compute 14
John 14
T@@ 14
accounts. 14
affected 14
album 14
also 14
an@@ 14
b@@ 14
campuses 14
city? 14
containing 14
count. 14
d@@ 14
employees. 14
home 14
industry 14
le@@ 14
m@@ 14
model 14
o@@ 14
on@@ 14
or@@ 14
range 14
se 14
shops 14
source 14
staff? 14
train 14
weeks 14
2000. 13
2? 13
7@@ 13
Boston 13
I@@ 13
J@@ 13
N@@ 13
Stockings 13
attribute 13
balance. 13
books 13
characteristics 13
city, 13
descending? 13
described 13
directed 13
districts 13
festivals 13
from? 13
having 13
hometowns 13
ing? 13
instructor 13
jobs 13
musician 13
names? 13
offered 13
ors? 13
paper 13
patients 13
physician 13
positions 13
problem 13
product. 13
quantity 13
rated 13
regions 13
s' 13
sales 13
spent 13
them 13
type, 13
using 13
well 13
"Bootup 12
"Le 12
"M@@ 12
10. 12
2. 12
20. 12
30 12
3@@ 12
Francisco 12
Los 12
Smith 12
actors 12
advisors 12
affiliated 12
allergies 12
attendance 12
belongs 12
characteristic 12
charge 12
co@@ 12
course? 12
created 12
data 12
day 12
details. 12
elimination 12
emails 12
gymnasts 12
ids. 12
ing. 12
instruments 12
l@@ 12
manager 12
members. 12
members? 12
minimum, 12
most? 12
number. 12
oppose 12
out 12
p@@ 12
rate 12
recently? 12
released 12
started 12
theme 12
to. 12
transactions. 12
tryout 12
unique 12
18@@ 11
300 11
4@@ 11
50? 11
8@@ 11
Grand 11
Janessa 11
New 11
R@@ 11
Report 11
Spring 11
U@@ 11
accounts? 11
advisor 11
airports? 11
appelations 11
area 11
ation 11
attended 11
balance? 11
base 11
bed 11
booking 11
bookings 11
built 11
cards 11
credits 11
d 11
ded 11
degrees 11
ding 11
employees? 11
equal 11
est 11
exhibitions 11
famous 11
flight 11
genre? 11
hardware 11
hours? 11
invoices. 11
main 11
manufacturer 11
musicals 11
official 11
old 11
or? 11
ors. 11
players. 11
point 11
products? 11
provided 11
report 11
reviewers 11
saving 11
share 11
songs? 11
stadium 11
stadiums 11
statement 11
storms 11
subject 11
user 11
visited 11
vocal 11
"A@@ 10
(@@ 10
0. 10
000? 10
0? 10
100? 10
2010. 10
201@@ 10
50. 10
8. 10
ACCT-211? 10
E@@ 10
University" 10
access 10
account. 10
active 10
address@@ 10
age? 10
all@@ 10
ar@@ 10
artworks 10
ation? 10
ations 10
attraction 10
banks 10
book 10
broadcast 10
captains 10
carriers 10
city. 10
complaint 10
cross 10
editors 10
ers, 10
family 10
get 10
headquarter 10
hosted 10
hotels 10
il@@ 10
invoices 10
it. 10
k@@ 10
language 10
log 10
manufactur@@ 10
match 10
nominated 10
ol@@ 10
order@@ 10
origin 10
passengers 10
percentage 10
perpetrators 10
points? 10
procedures 10
publishers 10
races? 10
ratings 10
record. 10
representatives 10
state? 10
teacher 10
title, 10
trained 10
u@@ 10
use 10
weight 10
written 10
y@@ 10
"Badlands"? 9
"San 9
( 9
100. 9
100@@ 9
200 9
5000 9
6@@ 9
8? 9
9. 9
English 9
Fall 9
L 9
O@@ 9
Pop"? 9
Ro@@ 9
Rock 9
act@@ 9
activities 9
activity 9
back 9
banking 9
be 9
bike 9
bikes 9
block 9
bought 9
builders 9
candidates 9
channels 9
cities? 9
codes. 9
companies. 9
competition 9
competitions 9
ct@@ 9
date, 9
destination 9
drama 9
each? 9
ending 9
enrollment? 9
estim@@ 9
event 9
exactly 9
faculties 9
filed 9
format 9
friend 9
grant 9
grap@@ 9
gross 9
grouped 9
groups 9
h@@ 9
history 9
interact 9
journalists 9
k 9
king 9
lessons 9
lines 9
login 9
medicine 9
membership 9
n 9
name? 9
orders. 9
origins 9
other 9
owned 9
performances 9
population. 9
product? 9
professor 9
rac@@ 9
rate? 9
rating. 9
record? 9
related 9
reviewed 9
schools. 9
score. 9
screen 9
shipping 9
shop 9
stop 9
stores 9
te@@ 9
tests 9
ticket 9
times. 9
times? 9
total. 9
trains 9
y, 9
"F@@ 8
"Heilo" 8
"Hopkins 8
"Tennis 8
$@@ 8
'S@@ 8
(in 8
) 8
000. 8
20? 8
3. 8
3? 8
5000? 8
6? 8
7? 8
9? 8
9@@ 8
Angeles 8
Jose 8
Linda 8
Mar@@ 8
Nancy 8
Ph.D. 8
Sawayn 8
Statistics 8
Student 8
TV 8
V@@ 8
accessed 8
ad@@ 8
airlines 8
albums? 8
allergies? 8
amenities 8
amount. 8
assessment 8
author@@ 8
b 8
band 8
ber@@ 8
claimed 8
companies? 8
con@@ 8
county. 8
cover 8
denomination 8
done 8
e"? 8
employee. 8
en@@ 8
fault 8
goalie 8
gpa 8
h 8
ha@@ 8
have. 8
held? 8
il 8
industries 8
injury 8
investor 8
ions 8
is@@ 8
item 8
kind 8
l 8
la@@ 8
lap 8
listed? 8
located? 8
low 8
make 8
manag@@ 8
managers 8
markets 8
media 8
medicines 8
ment 8
modern 8
movi@@ 8
offers 8
only 8
open 8
outcome 8
page 8
part 8
party. 8
people. 8
people? 8
per@@ 8
pilot 8
plac@@ 8
players? 8
police 8
price? 8
problem@@ 8
programs 8
r@@ 8
railways 8
ranks 8
rating? 8
recently 8
ro@@ 8
roles 8
roller 8
sal@@ 8
salary. 8
secretary 8
settlements 8
stars 8
starts 8
state. 8
storm 8
student. 8
studios 8
studying 8
su@@ 8
submission 8
support 8
ta@@ 8
teaching 8
th@@ 8
themes 8
these 8
tracks. 8
types? 8
universities 8
ure 8
vocals 8
votes. 8
white 8
y". 8
"B@@ 7
'M@@ 7
)? 7
-@@ 7
100000 7
11@@ 7
18 7
19@@ 7
2002 7
2004? 7
200? 7
25 7
30? 7
40 7
Alice 7
Biology 7
Canoeing 7
English? 7
London 7
On 7
Part@@ 7
Prix 7
Rylan 7
UK 7
US@@ 7
University 7
University@@ 7
Where 7
ac@@ 7
accounting 7
activ@@ 7
advise 7
ag@@ 7
aged 7
agent 7
alphabetic 7
alphabetically 7
als 7
appel@@ 7
appoint@@ 7
assets 7
attraction@@ 7
average. 7
award@@ 7
categories 7
cities. 7
claim@@ 7
climb@@ 7
committee 7
crime 7
database? 7
debates 7
departments? 7
destroyed 7
didn't 7
earn 7
earning 7
en? 7
enrollment. 7
ent@@ 7
enzyme 7
er, 7
est. 7
events? 7
ex@@ 7
fastest 7
fi@@ 7
file 7
fin@@ 7
five 7
flights? 7
followers 7
frequently 7
friend@@ 7
genders 7
give 7
guests 7
has. 7
he 7
ho@@ 7
hometown 7
ic@@ 7
invested 7
investors 7
it? 7
it@@ 7
lasted 7
launched 7
length 7
li@@ 7
liv@@ 7
live? 7
lives 7
log@@ 7
long 7
longer 7
m 7
made. 7
majors 7
mak@@ 7
marketing 7
ment. 7
mo@@ 7
nurses 7
o 7
often 7
organisation 7
own@@ 7
p 7
patient 7
percent@@ 7
performed 7
place 7
platforms 7
policies 7
program 7
publications 7
races. 7
rat@@ 7
rates 7
ratings. 7
red 7
regional 7
res@@ 7
research 7
reserved 7
result. 7
room@@ 7
rooms? 7
s"? 7
salary? 7
season 7
seating 7
serve 7
served 7
ship 7
software 7
songs. 7
sp@@ 7
stat@@ 7
stor@@ 7
student? 7
sum 7
taking 7
teaches 7
them. 7
this 7
time? 7
title? 7
together 7
training 7
transactions? 7
trip 7
worked 7
works 7
‘@@ 7
"Dayana 6
"On 6
"S@@ 6
"T@@ 6
'D@@ 6
'G@@ 6
1000? 6
198@@ 6
199@@ 6
200. 6
2002? 6
2008? 6
2009? 6
2016? 6
40. 6
60 6
800@@ 6
Also 6
American 6
And 6
As 6
Baltimore" 6
Bo@@ 6
Californi@@ 6
Clar@@ 6
Coast 6
Computer 6
Cre@@ 6
D 6
Edwards? 6
F) 6
FDA 6
GPA 6
IDs 6
James 6
LA 6
Order 6
Paper 6
Psychology 6
Select 6
Tur@@ 6
Y 6
Y@@ 6
a". 6
affiliation 6
alphabetically? 6
am@@ 6
amounts 6
architects 6
ard@@ 6
area? 6
artist@@ 6
ascending? 6
ation. 6
attend 6
authoriz@@ 6
availability 6
bed@@ 6
belonging 6
book@@ 6
booked 6
budget. 6
builder 6
bus 6
ca@@ 6
class? 6
classrooms 6
clubs. 6
cmi 6
coasters 6
colleg@@ 6
colleges? 6
commission 6
committe@@ 6
company? 6
complaints 6
completion 6
conferred 6
count@@ 6
country. 6
courses. 6
cycle. 6
cycle? 6
decor 6
departments. 6
der 6
description. 6
direct@@ 6
division 6
don@@ 6
driv@@ 6
e". 6
ed@@ 6
employee's 6
en 6
ended 6
engineer 6
enrollments 6
ent 6
er's 6
es' 6
et 6
ey 6
fall 6
file@@ 6
films. 6
furnitures 6
g 6
games? 6
gender? 6
genre@@ 6
go 6
gymnasts? 6
happened 6
happy 6
headquart@@ 6
hi@@ 6
high 6
his 6
hours. 6
i 6
ies. 6
include 6
includes 6
industry. 6
ing@@ 6
ins 6
institutions 6
instruct@@ 6
invoices? 6
ion 6
ity. 6
joined 6
kinds 6
latest 6
latitude 6
left 6
lesson 6
level@@ 6
lo@@ 6
loan 6
manufacturers 6
mate 6
me@@ 6
milliseconds? 6
ministers 6
model@@ 6
movie? 6
nominee 6
number, 6
once 6
operated 6
ors 6
ors, 6
our 6
paid 6
papers. 6
part@@ 6
parties. 6
parties? 6
photos 6
population? 6
professors? 6
project@@ 6
projects? 6
publication 6
rate. 6
reached 6
recently. 6
records 6
reference 6
regions. 6
requested 6
research@@ 6
restaurant 6
review. 6
review@@ 6
same 6
scientist 6
season@@ 6
seat@@ 6
sex 6
sh@@ 6
side 6
size. 6
st@@ 6
stage 6
star@@ 6
station. 6
statuses 6
stay 6
stock. 6
submissions 6
take 6
them? 6
then 6
time. 6
titles, 6
tonnage 6
trade 6
types, 6
undergoing 6
v@@ 6
ve 6
vice 6
visit@@ 6
w 6
week 6
wine 6
wineries 6
"D@@ 5
"G@@ 5
"L@@ 5
"Nokia 5
"Pen 5
(first 5
), 5
). 5
.@@ 5
1000. 5
10000@@ 5
12000 5
16@@ 5
1850 5
195@@ 5
1990 5
1996? 5
2005? 5
2008 5
3, 5
500? 5
5@@ 5
600 5
7. 5
737-8@@ 5
90? 5
Among 5
Australian 5
Boeing 5
Brittany 5
CSU 5
Carole 5
China? 5
Dan 5
Francisco@@ 5
G 5
Hall 5
ID, 5
July 5
LA@@ 5
M 5
M) 5
NY@@ 5
Palo 5
Retrieve 5
Se@@ 5
Smith@@ 5
States. 5
Systems 5
Wen 5
a"? 5
acc 5
accommodate 5
accreditation 5
actors. 5
actors? 5
advis@@ 5
advises 5
advisor? 5
airline 5
airport? 5
allerg@@ 5
amenities. 5
amenity 5
amounts. 5
ar 5
are@@ 5
artists. 5
ates 5
ation@@ 5
ations. 5
ations? 5
attende@@ 5
audio 5
basketball 5
bath@@ 5
birth@@ 5
bl@@ 5
bookings. 5
born 5
bu@@ 5
budgets 5
build@@ 5
camera 5
capacity. 5
captain 5
cat@@ 5
category? 5
ceremony 5
cheapest 5
churches 5
claims 5
class. 5
code? 5
codes, 5
come 5
committees 5
competitions? 5
cont@@ 5
count? 5
country, 5
county? 5
course. 5
customers' 5
customers, 5
d"? 5
decreasing 5
delegate 5
descriptions. 5
destinations 5
detent@@ 5
document. 5
document@@ 5
draft 5
ds 5
dur@@ 5
each. 5
ear@@ 5
ed, 5
elevation 5
elimin@@ 5
eliminated 5
engineers 5
entrepreneurs. 5
enzymes? 5
er". 5
es@@ 5
event. 5
events. 5
ever 5
exhibition@@ 5
exist? 5
females 5
films? 5
floor 5
food 5
founder 5
frequently. 5
frequently? 5
from. 5
gam@@ 5
gender. 5
given 5
governor 5
granted 5
handled 5
he@@ 5
heads 5
heights 5
her 5
high@@ 5
hired 5
host. 5
incident 5
ined 5
instrument 5
international 5
ir@@ 5
ity 5
j@@ 5
job@@ 5
journal 5
kids 5
le 5
least? 5
line 5
locations. 5
lot 5
ma@@ 5
mailshots 5
managing 5
market@@ 5
master 5
medals 5
medic@@ 5
ments 5
ments. 5
mid 5
milk 5
minute 5
mode 5
models 5
monthly 5
morn@@ 5
much 5
nationalities 5
nominees 5
number? 5
o"? 5
offic@@ 5
often? 5
on. 5
orders? 5
organization@@ 5
organizations 5
orig@@ 5
ou@@ 5
outcomes 5
outcomes? 5
pap@@ 5
party? 5
patient@@ 5
payments? 5
percent 5
perpetrators? 5
person? 5
phon@@ 5
photo 5
pit 5
placed 5
played. 5
policy. 5
poss@@ 5
prerequisite 5
pric@@ 5
process@@ 5
produce 5
program@@ 5
publisher 5
quantities 5
ranges 5
rank, 5
rank. 5
rank? 5
record 5
records. 5
rented 5
revenues 5
ri@@ 5
room. 5
runs 5
school. 5
season, 5
semester 5
settle@@ 5
si@@ 5
sports? 5
spring 5
staff@@ 5
stars? 5
station@@ 5
stations. 5
stock 5
structure@@ 5
studio 5
submission@@ 5
support@@ 5
swimmers 5
system 5
t. 5
task 5
there. 5
top. 5
top? 5
tracks? 5
trains. 5
typical 5
ues 5
university 5
up 5
us@@ 5
use? 5
venue 5
venues 5
web 5
working? 5
wrestlers? 5
yes 5
’. 5
"1994 4
"600@@ 4
"Appropriations" 4
"Columbus 4
"E@@ 4
"Fail"? 4
"Goog@@ 4
"O@@ 4
"Solveig" 4
'T@@ 4
'cumin@@ 4
,000 4
00 4
0000 4
0@@ 4
10000 4
15 4
160 4
18? 4
1999 4
2000, 4
2001 4
2001? 4
2004. 4
2010 4
3000 4
300? 4
4. 4
456059648484@@ 4
50000@@ 4
5th, 4
6 4
600. 4
6000 4
7 4
70 4
8 4
84@@ 4
90. 4
A340-3@@ 4
Accounting 4
Airbus 4
Al@@ 4
Alic@@ 4
Angele@@ 4
Ar@@ 4
Art 4
Atlanta 4
Austin. 4
Bernhard 4
Book@@ 4
C 4
CCT@@ 4
CIS-220 4
Central 4
Ch@@ 4
China. 4
Chri@@ 4
Club". 4
Cup 4
De@@ 4
Display 4
EN 4
Enterprises"? 4
FIFA 4
Fast 4
Fe@@ 4
Finance 4
Football 4
GDP@@ 4
GPA@@ 4
Harris? 4
Hartford 4
History 4
Homenick@@ 4
Japan@@ 4
K? 4
Kayaking. 4
Lamberton 4
Lounge 4
March 4
Mark 4
Marketing 4
Michael 4
Midshipman 4
Mountain 4
Orton@@ 4
Physics 4
Progress 4
Psychiatry 4
RAM 4
ROY 4
Re@@ 4
Road" 4
Room 4
S 4
Sawayn? 4
Son@@ 4
Spain? 4
States 4
States? 4
Subway? 4
Surgery 4
Vincent 4
World 4
York 4
Zach 4
_MAN@@ 4
a" 4
accessible 4
account? 4
activity? 4
addressed 4
addresses? 4
adults 4
affirmative 4
ages. 4
album@@ 4
albums. 4
amount? 4
anc@@ 4
ance 4
ani@@ 4
ap@@ 4
apart@@ 4
appelation 4
appointment? 4
approval 4
area. 4
art@@ 4
artists? 4
asc@@ 4
assign@@ 4
ast@@ 4
ated 4
ation, 4
attend@@ 4
audience 4
available. 4
available? 4
award 4
ay 4
balanc@@ 4
be@@ 4
bi@@ 4
branch@@ 4
brand 4
bridges 4
brows@@ 4
browser 4
budget@@ 4
budgeted 4
building. 4
bus@@ 4
buying 4
capacity? 4
captain. 4
cards. 4
certificates 4
checked 4
cho@@ 4
cinema 4
cinema@@ 4
cinemas 4
circuits 4
cities, 4
ck 4
classroom, 4
cloud 4
clubs? 4
coach@@ 4
codes? 4
college. 4
com@@ 4
commission@@ 4
common? 4
company. 4
compatible 4
competition. 4
competition@@ 4
complaints? 4
complete 4
comptroller 4
constructors 4
contacted 4
content 4
cost@@ 4
costs 4
cou@@ 4
counties? 4
country? 4
credit@@ 4
credits. 4
customer? 4
customer@@ 4
damage 4
date? 4
dates? 4
de 4
decor@@ 4
democratic 4
denominations 4
destruction 4
dew 4
distanc@@ 4
do@@ 4
du@@ 4
e" 4
earli@@ 4
edit@@ 4
election. 4
elections 4
elections? 4
enc@@ 4
end@@ 4
ending. 4
endowment 4
enrollments. 4
entrepreneurs? 4
ents 4
ered 4
ern@@ 4
est, 4
est? 4
except 4
exhibition 4
expenses. 4
festivals. 4
festivals? 4
ff@@ 4
first, 4
fla@@ 4
flag 4
flied 4
fly 4
followed 4
for? 4
forc@@ 4
forename 4
forenames 4
foun@@ 4
four 4
frequent 4
ga@@ 4
ge 4
genres 4
go@@ 4
goali@@ 4
grade. 4
grade@@ 4
grants 4
gu@@ 4
gymnasts, 4
gymnasts. 4
head@@ 4
height. 4
height? 4
hor@@ 4
hotels. 4
hour@@ 4
humidity 4
ial 4
in, 4
inclu@@ 4
individual@@ 4
individuals 4
industry? 4
info 4
ing, 4
institution. 4
invoic@@ 4
io@@ 4
ion. 4
issue 4
items? 4
ity? 4
ive 4
job? 4
join@@ 4
laptime 4
laptime? 4
last@@ 4
le". 4
leave 4
led 4
length@@ 4
lens 4
les 4
lex@@ 4
lin@@ 4
lived 4
loan@@ 4
loans 4
loans. 4
local 4
location, 4
location. 4
logged 4
long@@ 4
longitude 4
lots 4
low@@ 4
maintenance 4
majoring 4
managed 4
match? 4
matches. 4
med 4
medication 4
medicin@@ 4
mem@@ 4
membership@@ 4
ment? 4
ments? 4
methods 4
middle 4
mills 4
minor@@ 4
mission 4
mp3 4
mp@@ 4
museum@@ 4
musicals. 4
name@@ 4
national@@ 4
ne@@ 4
null 4
occup@@ 4
offer@@ 4
offices 4
old? 4
once? 4
open@@ 4
operat@@ 4
ories 4
overall 4
owner 4
pages 4
park@@ 4
parking 4
parks 4
participants? 4
payment@@ 4
payments 4
people, 4
persons 4
phone, 4
physician@@ 4
play@@ 4
players' 4
playlist@@ 4
points. 4
policies. 4
policies? 4
poll 4
position. 4
position? 4
positions. 4
post 4
practic@@ 4
prerequisites? 4
pri@@ 4
primarily 4
primary 4
problems. 4
procedure@@ 4
processed 4
product, 4
products, 4
professors. 4
project. 4
projects. 4
prominence 4
property 4
public 4
publish@@ 4
purchase 4
ra@@ 4
receive 4
region@@ 4
rent@@ 4
rental 4
rental@@ 4
repair@@ 4
representatives? 4
require 4
reserv@@ 4
residents? 4
result@@ 4
role. 4
rooms. 4
routes. 4
ry 4
salar@@ 4
sang 4
scholarship 4
score? 4
sea 4
section@@ 4
sections 4
series 4
ship@@ 4
shipped 4
ships. 4
shop@@ 4
short 4
shorter 4
show@@ 4
singers 4
single 4
snatch 4
someone 4
son 4
son@@ 4
song? 4
song@@ 4
sport@@ 4
st? 4
standing 4
start@@ 4
status. 4
status@@ 4
staying 4
stops 4
stores. 4
storm@@ 4
structure 4
stud@@ 4
student's 4
sub@@ 4
subject@@ 4
submissions. 4
sung 4
suppli@@ 4
supplier 4
suppliers 4
sur@@ 4
surname 4
t? 4
tak@@ 4
tallest 4
tax 4
teach? 4
teach@@ 4
team. 4
took? 4
tried 4
trips? 4
tryouts? 4
tweeted 4
tweets 4
um@@ 4
un@@ 4
valid 4
vehicle 4
visit 4
visit? 4
vote 4
votes? 4
w". 4
w@@ 4
walk 4
wh@@ 4
wines. 4
with. 4
won? 4
wrestlers. 4
x@@ 4
y"? 4
y' 4
year, 4
", 3
"A 3
"An@@ 3
"Banking" 3
"C@@ 3
"Canad@@ 3
"Close 3
"Confirmed@@ 3
"David 3
"Der 3
"Dian@@ 3
"Heilo"? 3
"Herb@@ 3
"Jeramie@@ 3
"NYC" 3
"Pass@@ 3
"USA@@ 3
"Upgrade 3
"W@@ 3
"food" 3
"win@@ 3
') 3
'A@@ 3
'C@@ 3
'F@@ 3
'Heme'? 3
'Herb@@ 3
'King 3
'R@@ 3
'Vinc@@ 3
'sesame' 3
(the 3
(with 3
)@@ 3
,@@ 3
-01-0@@ 3
-2@@ 3
-fiel@@ 3
0 3
00@@ 3
1.@@ 3
10000? 3
111. 3
150. 3
1500 3
15? 3
18. 3
180@@ 3
1986-11-1@@ 3
1989-09-03 3
1989? 3
1990. 3
1995? 3
2004 3
2005 3
2007-12-2@@ 3
2007? 3
2014 3
2016. 3
2017? 3
20@@ 3
21, 3
23 3
300. 3
301? 3
32 3
32. 3
33@@ 3
345@@ 3
37.@@ 3
40? 3
4? 3
500. 3
5000. 3
6. 3
600? 3
8000 3
80? 3
85. 3
9410@@ 3
ACCT-211 3
Advisor 3
Airlin@@ 3
Alto? 3
Astrid 3
Australi@@ 3
Balls 3
Baltimore". 3
Baltimore"? 3
Bangla? 3
Banglade@@ 3
Beij@@ 3
Bob@@ 3
Brown@@ 3
C? 3
CHI@@ 3
COMPUTER 3
CV 3
CV". 3
Call 3
Cameron 3
Cameron? 3
Canad@@ 3
Canada? 3
Chinese 3
Clerical 3
Col@@ 3
Comp. 3
Corporation"? 3
Denmark@@ 3
Destin@@ 3
Di@@ 3
Donor 3
Duke 3
East 3
Ebba@@ 3
English. 3
Enterprises". 3
F 3
Foss@@ 3
From 3
GDP 3
Galler@@ 3
Gaming". 3
Ger@@ 3
Giuliano 3
Hean@@ 3
Honolulu. 3
Honolulu? 3
Info. 3
Information 3
International 3
Kapitan"? 3
Kertzman@@ 3
Kingdom. 3
LE@@ 3
LOCK 3
Lab@@ 3
Lacross@@ 3
Lewis? 3
Lieutenant@@ 3
London? 3
Lounge? 3
Lucas 3
MOYER@@ 3
MPEG 3
Mancini 3
Math 3
Mo@@ 3
Movi@@ 3
NEB. 3
NEB? 3
NUL@@ 3
NY 3
OTHA 3
Orange 3
PS@@ 3
Pa@@ 3
Pop" 3
Prix? 3
Pro@@ 3
Procrastin-@@ 3
Profess@@ 3
QM-26@@ 3
Robel"? 3
SE@@ 3
SWEAZ@@ 3
Sci. 3
Shark? 3
Shi@@ 3
Smithson 3
Sony? 3
St@@ 3
Staff@@ 3
Study 3
Tex@@ 3
Texas 3
Th@@ 3
Tokyo 3
US 3
USD). 3
Utah 3
View 3
Vis@@ 3
Wall@@ 3
X. 3
York? 3
Zach@@ 3
a'? 3
a, 3
able 3
accelerators 3
acceptance 3
accepted 3
accidents 3
accidents? 3
account@@ 3
activities. 3
activities? 3
activity. 3
actor 3
actress@@ 3
address, 3
advised 3
affected. 3
affected? 3
age, 3
ai@@ 3
air 3
aircraft? 3
aircrafts. 3
airlines? 3
airports. 3
al". 3
ally 3
altitude 3
amenities? 3
amount@@ 3
ancelled 3
ant 3
apartments. 3
appeared 3
appears 3
appointment 3
arch@@ 3
arrival 3
ass@@ 3
asset 3
ate 3
ated. 3
ating 3
ations, 3
ative 3
att@@ 3
attend? 3
attendanc@@ 3
attendances 3
audi@@ 3
authorised 3
authority 3
ay@@ 3
azz 3
ball 3
band@@ 3
bank@@ 3
based 3
bed. 3
bedrooms. 3
beds 3
before? 3
behavior 3
bill@@ 3
billed 3
black 3
booking? 3
books. 3
bran@@ 3
bridge 3
building, 3
building? 3
buildings. 3
bus? 3
c 3
candidates. 3
candidates? 3
cap@@ 3
captain? 3
captains? 3
card. 3
card? 3
cards? 3
carrier 3
cat 3
category. 3
cell 3
cer@@ 3
certificate 3
certificate. 3
certificates? 3
ch 3
ch@@ 3
characteristic@@ 3
characters 3
chip 3
ci@@ 3
circulation 3
claims, 3
class@@ 3
classes, 3
classes? 3
classroom. 3
clients 3
climbed 3
clo@@ 3
clu@@ 3
club@@ 3
coaches 3
colle@@ 3
color@@ 3
colors 3
colors. 3
competition? 3
complaints. 3
complete@@ 3
compon@@ 3
computer 3
conference 3
construct@@ 3
contents 3
contract@@ 3
council 3
counties. 3
counts 3
creation 3
credits? 3
ct 3
cu@@ 3
dat@@ 3
database@@ 3
dates, 3
day@@ 3
death 3
debat@@ 3
decis@@ 3
decision 3
degree 3
degree? 3
denomination. 3
department, 3
departure 3
desc@@ 3
description, 3
descriptions? 3
detail. 3
detailed 3
details, 3
details? 3
devic@@ 3
device 3
devices, 3
di@@ 3
differ@@ 3
director, 3
distance. 3
doct@@ 3
dollars 3
dollars? 3
domestic 3
donation 3
donator 3
donors 3
dorm? 3
dorms. 3
dorms? 3
drivers' 3
during 3
each, 3
earliest 3
eber? 3
ec@@ 3
ed". 3
editor 3
ee@@ 3
effe@@ 3
election@@ 3
eliminations 3
ember 3
ember@@ 3
employee? 3
ence? 3
engineer? 3
engineers? 3
enn@@ 3
enroll 3
enrolled? 3
enter 3
entries 3
entries. 3
ents. 3
er"? 3
erg@@ 3
est@@ 3
estimation 3
estimations 3
et@@ 3
ev@@ 3
everybody 3
exist 3
expen@@ 3
f 3
facility 3
faculty. 3
farm@@ 3
farms. 3
faults? 3
feat@@ 3
feet 3
female? 3
festival 3
festival? 3
fewer 3
film@@ 3
flight@@ 3
flo@@ 3
fo@@ 3
footed 3
for@@ 3
form@@ 3
format@@ 3
found@@ 3
frequency 3
friend? 3
function@@ 3
games. 3
ge@@ 3
gold 3
good@@ 3
govern@@ 3
gpa? 3
grapes? 3
groups? 3
gust 3
hall 3
happen@@ 3
haven't 3
head 3
hel@@ 3
held. 3
histor@@ 3
horses 3
hosts? 3
hotels? 3
hour 3
ids? 3
ig@@ 3
imag@@ 3
incident@@ 3
increasing 3
incurred 3
individual 3
inform@@ 3
ing". 3
ing"? 3
inhibit@@ 3
injur@@ 3
injure@@ 3
injured 3
inn? 3
inst@@ 3
int@@ 3
interaction 3
interactions? 3
inventory? 3
invest@@ 3
investors. 3
ist@@ 3
ity@@ 3
journalist@@ 3
journals 3
label 3
labels 3
languag@@ 3
languages 3
lar@@ 3
lat@@ 3
latest? 3
latitude, 3
latitude. 3
launch 3
ld 3
le"? 3
le? 3
lead 3
lead@@ 3
led? 3
left-@@ 3
lenses 3
lexicograp@@ 3
ley 3
lie@@ 3
list@@ 3
loan? 3
loans? 3
located. 3
locations, 3
loss@@ 3
ly? 3
machines 3
made, 3
major? 3
major@@ 3
male? 3
man@@ 3
manufacturer? 3
match@@ 3
matches 3
measure 3
measure@@ 3
med@@ 3
member. 3
memberships 3
merican@@ 3
method, 3
method? 3
mi@@ 3
mid@@ 3
mill 3
millions 3
min 3
min@@ 3
minister 3
minutes 3
mont@@ 3
morning 3
mountain@@ 3
mountains? 3
mov@@ 3
mult@@ 3
nations 3
nc@@ 3
ned 3
nick@@ 3
night? 3
ning 3
nomin@@ 3
nominated. 3
notes 3
notes? 3
notification 3
ns 3
nt@@ 3
number@@ 3
numbers. 3
o, 3
o. 3
oc@@ 3
occupation 3
occur@@ 3
occurred 3
offer 3
office, 3
office. 3
office? 3
offices? 3
onaco 3
onc@@ 3
ony 3
opened. 3
operate 3
orders, 3
our@@ 3
ournament 3
out@@ 3
outcome@@ 3
par@@ 3
park 3
participant 3
participants 3
parts 3
passengers. 3
past@@ 3
payed 3
payment? 3
perform@@ 3
performanc@@ 3
performed@@ 3
performer 3
photos. 3
picture 3
plan@@ 3
played? 3
player, 3
player? 3
players, 3
policy" 3
policy@@ 3
pop 3
populations 3
position, 3
positions? 3
postal 3
postseason 3
postseason. 3
postseason? 3
pre@@ 3
premise 3
premises 3
prerequisite? 3
presc@@ 3
prescribed 3
present@@ 3
pressure 3
pro@@ 3
produces 3
product@@ 3
project? 3
proteins 3
prov@@ 3
public@@ 3
qu@@ 3
railways. 3
ran 3
ran@@ 3
rang@@ 3
rate, 3
rating, 3
rating@@ 3
recei@@ 3
receiv@@ 3
records? 3
reg@@ 3
regions? 3
reigns 3
relationship? 3
release 3
requested? 3
respon@@ 3
results? 3
reven@@ 3
reviews 3
reviews. 3
ries. 3
rit@@ 3
rock 3
role? 3
room, 3
ross@@ 3
s". 3
s'. 3
salary, 3
scholarship? 3
schools? 3
science 3
scientist@@ 3
se? 3
section 3
senator 3
servic@@ 3
serving 3
ses 3
settled 3
settled. 3
settlements? 3
sex@@ 3
shar@@ 3
shipment 3
ships? 3
shops, 3
siz@@ 3
size? 3
skill 3
so@@ 3
some@@ 3
son? 3
speci@@ 3
speed@@ 3
sports 3
st 3
st. 3
star? 3
stayed 3
stock? 3
stocks. 3
stories 3
strik@@ 3
students' 3
students, 3
studi@@ 3
success@@ 3
supplied 3
swimm@@ 3
swimmer 3
table@@ 3
tasks 3
tax@@ 3
team, 3
technicians? 3
ted 3
tell 3
terms 3
th, 3
thing 3
third 3
through 3
titled 3
titles. 3
titles? 3
tonnage? 3
tourists 3
tracking 3
transaction@@ 3
treasurer 3
treatment? 3
tryout. 3
ts 3
tutors 3
twice. 3
ual 3
unsure 3
us 3
used? 3
user, 3
ust 3
ut@@ 3
value? 3
velocity 3
vocal. 3
vocal? 3
vocals? 3
volume 3
volumes. 3
voting 3
ways 3
weights 3
win 3
winery? 3
winning 3
within 3
work@@ 3
writ@@ 3
x' 3
years, 3
years? 3
yes. 3
"2@@ 2
"6@@ 2
"AC/D@@ 2
"AK@@ 2
"Aar@@ 2
"Acknowledgement@@ 2
"Awarde@@ 2
"BAL@@ 2
"Bank@@ 2
"Binders 2
"Bob 2
"CLE" 2
"CTO" 2
"CW@@ 2
"Cancel@@ 2
"Cancelled" 2
"Chocol@@ 2
"Computer 2
"Dav@@ 2
"Demon 2
"Dup@@ 2
"Eliot 2
"Emma" 2
"Fail" 2
"Fast 2
"Fem@@ 2
"Florida" 2
"Glenn" 2
"Graphic@@ 2
"H@@ 2
"HHH@@ 2
"HOU@@ 2
"HR@@ 2
"J@@ 2
"Japan" 2
"Jerem@@ 2
"LG-P760@@ 2
"Life 2
"MG@@ 2
"Mal@@ 2
"Marianne" 2
"Marry 2
"Matthi@@ 2
"Maudie 2
"N@@ 2
"Nanjing 2
"Open@@ 2
"P@@ 2
"PUR@@ 2
"Pack@@ 2
"Pap@@ 2
"Pass" 2
"Program 2
"Provision@@ 2
"R@@ 2
"Republic@@ 2
"Robin 2
"Second 2
"Shipp@@ 2
"Shipped" 2
"Spic@@ 2
"Spring" 2
"Steph@@ 2
"Taizhou 2
"Teqnolog@@ 2
"Tillman 2
"Tokohu 2
"Tony 2
"Triumf@@ 2
"Turon" 2
"UK 2
"US 2
"Uen@@ 2
"United 2
"Univers@@ 2
"Zieme" 2
"advanced 2
"aut@@ 2
"data 2
"film 2
"film@@ 2
"game@@ 2
"ho@@ 2
"luisg@embraer.com.br@@ 2
"operating 2
"rem" 2
"sesame" 2
"vbogisich@example.org@@ 2
"voluptatem" 2
'1989-04-24 2
'2005-08-23 2
'A 2
'ALA 2
'Aripiprazole@@ 2
'Armani@@ 2
'Boston 2
'CACHEbox' 2
'Cytosol@@ 2
'GT@@ 2
'Graph 2
'Initial@@ 2
'Knee 2
'L@@ 2
'Matter 2
'No 2
'Noel 2
'P@@ 2
'Private 2
'Regular' 2
'Walter 2
'Y@@ 2
'Yale 2
'omnis' 2
'yellow@@ 2
-01@@ 2
-0@@ 2
-50 2
02:06:0@@ 2
07:13:5@@ 2
08/30/201@@ 2
11 2
111 2
112@@ 2
14 2
150 2
15000 2
171 2
18000 2
1885 2
1890 2
190@@ 2
192@@ 2
1935 2
193@@ 2
1960 2
1961 2
196@@ 2
1978-06@@ 2
197@@ 2
1980 2
1985 2
2007 2
2007@@ 2
2009-01@@ 2
2010@@ 2
2017 2
2018 2
2018-03-17 2
220 2
23:51:54@@ 2
24251896@@ 2
254 2
26@@ 2
3.8 2
30.3 2
300@@ 2
36 2
4000 2
4500@@ 2
46 2
500 2
50000 2
500@@ 2
5600 2
57.@@ 2
700 2
7000 2
70000 2
7017@@ 2
8.@@ 2
80 2
85 2
862 2
874@@ 2
90 2
90000 2
93000 2
9400@@ 2
99 2
9:2@@ 2
:00:@@ 2
?@@ 2
ABOZ@@ 2
AMI@@ 2
ARR@@ 2
AS@@ 2
AW@@ 2
Air@@ 2
Aly@@ 2
Am@@ 2
An@@ 2
And@@ 2
Ann@@ 2
Anonymous 2
Anth@@ 2
Application@@ 2
Beach 2
Before 2
Bill@@ 2
Building 2
CLA@@ 2
CONRA@@ 2
CV" 2
CV' 2
CV@@ 2
Can@@ 2
Char@@ 2
Club" 2
Club@@ 2
Cob@@ 2
Comput@@ 2
Corporation" 2
Count@@ 2
Cresc@@ 2
Database 2
Dec 2
Depart@@ 2
Distric@@ 2
Doming@@ 2
Edward@@ 2
Ernser@@ 2
Exp@@ 2
Express" 2
Film@@ 2
Financ@@ 2
Gatw@@ 2
Geome@@ 2
Georgi@@ 2
Geovannyton@@ 2
German@@ 2
Go: 2
Gr@@ 2
Grub@@ 2
HRISS@@ 2
Hamburg@@ 2
Harri@@ 2
He@@ 2
Helen@@ 2
Hill@@ 2
IA@@ 2
ID@@ 2
IN 2
ING 2
INTRODUCTION 2
IT@@ 2
Indiana 2
Insuranc@@ 2
Jam@@ 2
Januar@@ 2
Jiangsu 2
Jo@@ 2
Jon@@ 2
Julianaside@@ 2
Junction@@ 2
K 2
Kaitlyn 2
Kayak@@ 2
Kent@@ 2
Kentuck@@ 2
Kiss 2
Kitty 2
Latte@@ 2
Live 2
MA@@ 2
Market@@ 2
Mart@@ 2
Martinez@@ 2
Mass@@ 2
Me@@ 2
Meet@@ 2
Mobile 2
Nam@@ 2
Number 2
ONDERSM@@ 2
ORI@@ 2
Oct 2
Oper@@ 2
Or@@ 2
Ottilie 2
Park@@ 2
Ph.D@@ 2
Po@@ 2
Programm@@ 2
Project@@ 2
Puzzling 2
RA@@ 2
RAM@@ 2
RE 2
Rag@@ 2
Robel@@ 2
Rog@@ 2
SCIENCE@@ 2
SELBI@@ 2
SSN 2
Sal@@ 2
Samuel' 2
Scen@@ 2
Shark@@ 2
Shea 2
Sho@@ 2
Spit@@ 2
Squ@@ 2
Staff 2
States" 2
Statistic@@ 2
Stev@@ 2
Stocking@@ 2
T 2
TO 2
TRAC@@ 2
Talent 2
Time' 2
USD@@ 2
Unboun@@ 2
V 2
VD 2
Vivi@@ 2
William@@ 2
X@@ 2
York@@ 2
You 2
Z 2
Zhejiang 2
a' 2
ab@@ 2
accelerat@@ 2
accelerator 2
access@@ 2
ach 2
adi@@ 2
af@@ 2
affili@@ 2
ai" 2
ain@@ 2
aircraft@@ 2
airport@@ 2
ale 2
algar@@ 2
alphabeticall@@ 2
alter 2
altitu@@ 2
am 2
amberton@@ 2
ame 2
ame@@ 2
amen@@ 2
amianfor@@ 2
amp@@ 2
an"? 2
anag@@ 2
ancel@@ 2
and@@ 2
aniel 2
animal@@ 2
appro@@ 2
arah 2
architect@@ 2
ark@@ 2
aro@@ 2
arol 2
arrears 2
as@@ 2
ashington 2
associ@@ 2
atabase@@ 2
ath@@ 2
atte@@ 2
av@@ 2
ba@@ 2
base@@ 2
befor@@ 2
big@@ 2
bile 2
born@@ 2
br@@ 2
broadc@@ 2
cEw@@ 2
calendar 2
cann@@ 2
capac@@ 2
captain@@ 2
card@@ 2
catalog@@ 2
cel@@ 2
cha@@ 2
chec@@ 2
church 2
climber 2
climber@@ 2
clos@@ 2
coast@@ 2
comm@@ 2
compan@@ 2
compla@@ 2
complaint@@ 2
composer 2
compt@@ 2
confer@@ 2
contact@@ 2
cop@@ 2
correspon@@ 2
cot@@ 2
cotte@@ 2
cours@@ 2
course@@ 2
course_@@ 2
court@@ 2
ctible 2
cur@@ 2
dail@@ 2
dam@@ 2
dar@@ 2
data@@ 2
deaths 2
defianc@@ 2
degre@@ 2
deleg@@ 2
department@@ 2
description@@ 2
dest@@ 2
director@@ 2
ditor@@ 2
drick 2
e's 2
ed' 2
edhur@@ 2
eel@@ 2
egative 2
eirich" 2
eled 2
eleted 2
elev@@ 2
elici@@ 2
em@@ 2
ema@@ 2
en" 2
ence 2
ender 2
endow@@ 2
engine@@ 2
ent' 2
entrepreneur 2
entrepreneur@@ 2
er' 2
erk 2
ers' 2
ers@@ 2
ervations 2
ery 2
ese 2
esi@@ 2
ess 2
ess@@ 2
eter 2
ets 2
expens@@ 2
expenses 2
facil@@ 2
fact@@ 2
facult@@ 2
fame 2
fault@@ 2
ferences 2
festival@@ 2
fferential 2
first@@ 2
floors 2
follow@@ 2
foo@@ 2
form 2
formed 2
franchi@@ 2
ful@@ 2
gand@@ 2
gentin@@ 2
gest 2
gh@@ 2
ght 2
gr@@ 2
gradu@@ 2
gymnast@@ 2
han@@ 2
hanewal 2
happ@@ 2
hat 2
hav@@ 2
hicag@@ 2
hire@@ 2
hol@@ 2
host@@ 2
hotel@@ 2
ia 2
ible 2
ic 2
ician@@ 2
id@@ 2
ide@@ 2
ies 2
ies? 2
inanc@@ 2
ince 2
ind 2
indust@@ 2
ings 2
install@@ 2
institution@@ 2
interaction@@ 2
invol@@ 2
ip@@ 2
iram@@ 2
iss@@ 2
ities 2
ition 2
ition@@ 2
iv@@ 2
iz@@ 2
izont@@ 2
join 2
ks 2
label@@ 2
lanc@@ 2
langu@@ 2
lar 2
latform 2
lea@@ 2
leasonmou@@ 2
len@@ 2
less@@ 2
ley" 2
lien@@ 2
lish@@ 2
liver@@ 2
location@@ 2
lorid@@ 2
lot@@ 2
lume" 2
ly@@ 2
machin@@ 2
machine 2
made@@ 2
mailsho@@ 2
maj@@ 2
mal@@ 2
mark@@ 2
memb@@ 2
ment@@ 2
met@@ 2
method@@ 2
middle@@ 2
mill@@ 2
millisecon@@ 2
milliseconds 2
mission@@ 2
mocratic 2
mountain 2
mus@@ 2
musical 2
musical@@ 2
nam@@ 2
net@@ 2
new@@ 2
nex@@ 2
ni@@ 2
nter@@ 2
nur@@ 2
ob@@ 2
ockmanfur@@ 2
of@@ 2
ohl@@ 2
oisalon@@ 2
oky@@ 2
om@@ 2
on? 2
onadic@@ 2
ood 2
ood@@ 2
oodric@@ 2
oodwin@@ 2
ootball 2
ootball@@ 2
orad@@ 2
ore 2
organis@@ 2
orok@@ 2
ortg@@ 2
orth 2
orthridg@@ 2
ot@@ 2
ouis@@ 2
ource 2
ous 2
outstanding 2
ov@@ 2
overnment@@ 2
particip@@ 2
pass@@ 2
pat@@ 2
perc@@ 2
pet@@ 2
photo@@ 2
pi@@ 2
pic@@ 2
pilo@@ 2
pilot@@ 2
po@@ 2
pon@@ 2
porphyria 2
port 2
port@@ 2
postseason@@ 2
poun@@ 2
pp@@ 2
precipit@@ 2
procedur@@ 2
produc@@ 2
prof@@ 2
profit@@ 2
promin@@ 2
protein 2
provi@@ 2
ps 2
pt 2
pt@@ 2
purcha@@ 2
put@@ 2
qualific@@ 2
qualification" 2
quant@@ 2
r 2
ram@@ 2
raz@@ 2
recor@@ 2
recorde@@ 2
reen@@ 2
reenland@@ 2
regist@@ 2
registr@@ 2
release@@ 2
ren@@ 2
rep@@ 2
representativ@@ 2
request@@ 2
reside@@ 2
residence 2
resident 2
residents 2
resolution@@ 2
rib@@ 2
riend@@ 2
ries 2
right@@ 2
rinc@@ 2
ript@@ 2
riv@@ 2
rizon@@ 2
roll@@ 2
route 2
s" 2
s.@@ 2
scholar@@ 2
school@@ 2
sco 2
sco@@ 2
score@@ 2
secon@@ 2
sell@@ 2
semest@@ 2
sh 2
ship? 2
sid@@ 2
side@@ 2
sk@@ 2
small@@ 2
spec@@ 2
stages 2
stanley.monahan@example.org@@ 2
state@@ 2
statement@@ 2
statistic@@ 2
statu@@ 2
ste@@ 2
stock@@ 2
stop@@ 2
stored 2
stre@@ 2
string 2
sum@@ 2
synthase' 2
system" 2
te 2
teaches? 2
team@@ 2
technician? 2
technicians. 2
temperature? 2
ten 2
ter 2
test 2
th 2
th-grade 2
the@@ 2
theater 2
theme. 2
theme@@ 2
ther@@ 2
ti@@ 2
ties" 2
time@@ 2
title. 2
to, 2
track. 2
track@@ 2
train. 2
training? 2
trains? 2
transportation 2
traveled 2
treat@@ 2
trip@@ 2
trust 2
try 2
try@@ 2
tryout? 2
tryouts, 2
tut@@ 2
tutors. 2
tweet. 2
tweets. 2
twice 2
twice? 2
ually 2
uar@@ 2
uba 2
udie? 2
ue 2
uels 2
um 2
umm@@ 2
unction@@ 2
undergraduates 2
une 2
uni@@ 2
ur@@ 2
ure? 2
ure@@ 2
usan. 2
use. 2
user@@ 2
users. 2
uses 2
ut 2
utenant 2
valu@@ 2
vatar? 2
venue. 2
vered 2
vers" 2
vide 2
village 2
visibility 2
visitor 2
visits? 2
volume@@ 2
volumes? 2
walk@@ 2
ward 2
ward". 2
way? 2
wedd@@ 2
wedding 2
weddings 2
weight? 2
wifi 2
wind 2
winery 2
winery. 2
wines, 2
wines? 2
wins 2
witzerland@@ 2
words 2
working. 2
works. 2
workshop. 2
workshop? 2
workshops 2
worldwide 2
wrau@@ 2
wrestler 2
writers 2
wrote 2
ws 2
x 2
x'. 2
x? 2
ximately 2
yah 2
year@@ 2
years. 2
yet? 2
ying? 2
yland 2
you 2
younger? 2
ysanne 2
zer@@ 2
’ 2
’@@ 2
’s 2
“@@ 2
”@@ 2
") 1
"9@@ 1
"A4" 1
"AAC 1
"AIB" 1
"AIB@@ 1
"App@@ 1
"Ash@@ 1
"B" 1
"Badlands" 1
"Balls 1
"Benjam@@ 1
"Bern@@ 1
"Bernie" 1
"Bo@@ 1
"Bosco@@ 1
"Bran@@ 1
"Cancelle@@ 1
"Cash" 1
"Cash@@ 1
"Cath@@ 1
"Catholic" 1
"Catholic@@ 1
"Cathrine" 1
"China" 1
"Cleavant 1
"Colum@@ 1
"Confirmed" 1
"Conglomer@@ 1
"Conglomerate" 1
"De@@ 1
"Deput@@ 1
"Deputy" 1
"Economic 1
"Emma@@ 1
"German@@ 1
"Glenn@@ 1
"Goo@@ 1
"Grade@@ 1
"Harol@@ 1
"Ho@@ 1
"Howard" 1
"Japan@@ 1
"K@@ 1
"Kar@@ 1
"Karson" 1
"Kent@@ 1
"Kim" 1
"King 1
"Labour 1
"Lake 1
"London 1
"Long 1
"M" 1
"Marian@@ 1
"MasterC@@ 1
"MasterCard" 1
"Medhurst@@ 1
"NY@@ 1
"Orton" 1
"PUR" 1
"Peter 1
"Pro@@ 1
"Product 1
"Provisional" 1
"Punk" 1
"ROY" 1
"Recluse 1
"Ro@@ 1
"Rob@@ 1
"Rodrick 1
"Santo 1
"Seed@@ 1
"Shanghai" 1
"Simon 1
"Spanis@@ 1
"Spanish" 1
"Spices" 1
"Studi@@ 1
"Studio" 1
"Team 1
"Temp@@ 1
"Temple" 1
"Tex@@ 1
"Tournam@@ 1
"USA" 1
"Uniform@@ 1
"Vil@@ 1
"West 1
"cherv@@ 1
"cumin@@ 1
"drum@@ 1
"enrico09@example.com@@ 1
"flax" 1
"food@@ 1
"l@@ 1
"laurel" 1
"on-hol@@ 1
"on-hold" 1
"photo@@ 1
"red" 1
"sesam@@ 1
"slow@@ 1
"wh@@ 1
"white" 1
"yellow@@ 1
%@@ 1
'1989-0@@ 1
'2003-04-19 1
'2016-03-15 1
'AIRPORT 1
'Amisulpride' 1
'B@@ 1
'Clo@@ 1
'Cut@@ 1
'E@@ 1
'H@@ 1
'HUNGER 1
'Iceland@@ 1
'Initial 1
'K@@ 1
'Meaghan@@ 1
'NY@@ 1
'O@@ 1
'Orbit@@ 1
'Pub@@ 1
'SF' 1
'Sigma' 1
'Sigma@@ 1
'Sponsor@@ 1
'Success@@ 1
'Thomp@@ 1
'Thompson' 1
'Y' 1
'Yes' 1
'inhibit@@ 1
'inhibitor' 1
'mid@@ 1
'yellow' 1
)" 1
-06@@ 1
-08-2@@ 1
-19 1
-grade 1
.' 1
.com@@ 1
/@@ 1
00:33:18@@ 1
02@@ 1
09@@ 1
1' 1
10000000 1
102@@ 1
1121 1
12 1
120 1
12@@ 1
13000 1
140 1
15:06:20' 1
15@@ 1
1880 1
1900 1
1978-06-26@@ 1
1986@@ 1
1996 1
1998 1
2" 1
2-06-2@@ 1
2.@@ 1
200000 1
2000000 1
2004@@ 1
2011 1
2012 1
255 1
25@@ 1
3-1@@ 1
30000 1
31 1
34@@ 1
37 1
37@@ 1
4.@@ 1
7:@@ 1
93 1
94107@@ 1
:2@@ 1
:5@@ 1
:@@ 1
> 1
A" 1
AC 1
AS 1
AT@@ 1
Airport@@ 1
App@@ 1
Ass@@ 1
Assign@@ 1
At@@ 1
Atla@@ 1
Aust@@ 1
Award" 1
Bangla@@ 1
Bernh@@ 1
Book' 1
CE@@ 1
CO@@ 1
Cas@@ 1
Class@@ 1
Cle@@ 1
Colle@@ 1
Countr@@ 1
Country 1
Customer@@ 1
DNO 1
Deb@@ 1
Den@@ 1
Derric@@ 1
Derrick@@ 1
Division 1
Donor@@ 1
Dor@@ 1
Dorian@@ 1
Duk@@ 1
Employees 1
Eng@@ 1
Enterprises" 1
Ex@@ 1
Express@@ 1
Fail@@ 1
Failure@@ 1
Fosse" 1
Gam@@ 1
Gaming" 1
Gatwick@@ 1
Go@@ 1
Gra@@ 1
Group@@ 1
HO@@ 1
HS@@ 1
Heathrow@@ 1
Ho@@ 1
IL@@ 1
IRPORT 1
In@@ 1
Initi@@ 1
Int@@ 1
Janess@@ 1
Japan" 1
KG@@ 1
King@@ 1
Kingdom@@ 1
Knol@@ 1
Knolls@@ 1
LEN@@ 1
LITERAC@@ 1
Le@@ 1
London@@ 1
Loung@@ 1
Luc@@ 1
ME@@ 1
MI@@ 1
MPE@@ 1
Matters" 1
N 1
NO@@ 1
NOT 1
Name 1
Num@@ 1
ON 1
OR@@ 1
ORD@@ 1
ORDON@@ 1
Ord@@ 1
Organiz@@ 1
POL@@ 1
POLLOCK' 1
Pap@@ 1
Paralla@@ 1
Pay@@ 1
Payments 1
Person 1
Person" 1
Person@@ 1
Pi@@ 1
Pri@@ 1
Product 1
R 1
RO@@ 1
ROM 1
ROO@@ 1
ROOF' 1
Ran@@ 1
Rat@@ 1
Reg@@ 1
Representat@@ 1
Res@@ 1
Research@@ 1
Respon@@ 1
Response' 1
Robel" 1
Scienc@@ 1
Science" 1
Sh@@ 1
Song@@ 1
Spielberg@@ 1
Status 1
Steven 1
Stockings' 1
Store_Name 1
Sy@@ 1
TER@@ 1
TN@@ 1
Tak@@ 1
Team 1
Tit@@ 1
UNGER 1
UR@@ 1
Un@@ 1
Utah@@ 1
V' 1
VI@@ 1
View@@ 1
WEAZY@@ 1
Wh@@ 1
Win@@ 1
Woodroff@@ 1
Woodroffe" 1
X 1
Z@@ 1
\ 1
accident@@ 1
accom@@ 1
ack@@ 1
acqui@@ 1
activit@@ 1
ad 1
afet@@ 1
affe@@ 1
affect@@ 1
age@@ 1
ail@@ 1
ains 1
ake 1
al" 1
ali@@ 1
all" 1
aller@@ 1
ames 1
ancini@@ 1
ancy 1
ann@@ 1
ans@@ 1
anto 1
anuar@@ 1
app@@ 1
appear@@ 1
approv@@ 1
architect 1
ardware 1
arol@@ 1
arri@@ 1
artwork 1
asset@@ 1
ast 1
aster@@ 1
ated" 1
athrow@@ 1
ational@@ 1
ats 1
atter 1
au@@ 1
availa@@ 1
averag@@ 1
ay" 1
azz@@ 1
ban@@ 1
bats 1
belong@@ 1
ber 1
bik@@ 1
bile@@ 1
ble 1
bo@@ 1
bridg@@ 1
built@@ 1
cal@@ 1
camp@@ 1
campus@@ 1
can@@ 1
candidat@@ 1
catalogs 1
categor@@ 1
celand@@ 1
cell@@ 1
certificat@@ 1
chan@@ 1
channel@@ 1
charact@@ 1
cherv@@ 1
chromo@@ 1
chromosome 1
cin@@ 1
citi@@ 1
city@@ 1
cli@@ 1
clim@@ 1
cluse 1
cm@@ 1
coach 1
col@@ 1
company@@ 1
compatible@@ 1
component 1
comput@@ 1
contain@@ 1
cor@@ 1
core@@ 1
countr@@ 1
coupon@@ 1
ction 1
ction@@ 1
custo@@ 1
cycle@@ 1
database" 1
den" 1
denomin@@ 1
depende@@ 1
dependent 1
dept@@ 1
des 1
des@@ 1
destro@@ 1
destruct@@ 1
dis@@ 1
dit 1
dn@@ 1
dorm@@ 1
drum@@ 1
e' 1
e) 1
eaghan@@ 1
ear 1
eg@@ 1
eir 1
el@@ 1
ele@@ 1
elevation) 1
ell 1
els 1
ely 1
emp@@ 1
emplo@@ 1
employment 1
enjam@@ 1
ennsylv@@ 1
ennsylvani@@ 1
enrico09@example.com@@ 1
enrollment@@ 1
entr@@ 1
enzyme@@ 1
erb@@ 1
eric@@ 1
ert@@ 1
esp@@ 1
estimate 1
eve 1
event@@ 1
every@@ 1
exce@@ 1
exist@@ 1
fam@@ 1
famil@@ 1
far@@ 1
farm 1
fe@@ 1
fend@@ 1
ferenc@@ 1
ffer@@ 1
fic@@ 1
fiel@@ 1
finitions 1
firstname 1
floor@@ 1
food@@ 1
foot@@ 1
force 1
fore@@ 1
frequenc@@ 1
frequentl@@ 1
from@@ 1
fur@@ 1
gas' 1
gen@@ 1
gend@@ 1
gender@@ 1
gre@@ 1
great@@ 1
group@@ 1
guest@@ 1
gust@@ 1
gymnast 1
ham@@ 1
hangha@@ 1
heck@@ 1
height@@ 1
hic@@ 1
hn 1
hometow@@ 1
hori" 1
hum@@ 1
i" 1
ian@@ 1
ib@@ 1
ibbon@@ 1
ibbons" 1
ical 1
icall@@ 1
idshipman@@ 1
ie@@ 1
ience 1
ieuten@@ 1
if@@ 1
ight@@ 1
ign@@ 1
ike@@ 1
ilm@@ 1
ils 1
im" 1
im@@ 1
imon 1
inc@@ 1
incorpor@@ 1
ind@@ 1
inda 1
index 1
industr@@ 1
ine@@ 1
iness@@ 1
inf@@ 1
ing" 1
ings. 1
inj@@ 1
inn@@ 1
instru@@ 1
inter@@ 1
inventory 1
ion@@ 1
ire 1
ise@@ 1
ist 1
ite@@ 1
item@@ 1
ith 1
ities. 1
ities? 1
iven 1
je@@ 1
ject 1
ject@@ 1
journal_@@ 1
journalist 1
ke@@ 1
ket@@ 1
kills 1
lack@@ 1
land 1
land@@ 1
laure@@ 1
leavant 1
leg@@ 1
ler@@ 1
lesson@@ 1
lett@@ 1
lic@@ 1
lish 1
longitu@@ 1
lor@@ 1
lose 1
loss 1
ls@@ 1
mail@@ 1
man 1
manufact@@ 1
masco@@ 1
mascot 1
mast@@ 1
meas@@ 1
metho@@ 1
mil@@ 1
million@@ 1
minist@@ 1
minut@@ 1
miss@@ 1
misulpri@@ 1
mith@@ 1
mode@@ 1
mon@@ 1
month@@ 1
name) 1
nat@@ 1
nau@@ 1
network@@ 1
nickname 1
no@@ 1
nomination 1
nt 1
nts 1
nul@@ 1
num@@ 1
nurse 1
o" 1
ock@@ 1
oft@@ 1
oi@@ 1
ok 1
om 1
ond@@ 1
ong 1
ong@@ 1
ons 1
oo@@ 1
or" 1
ord@@ 1
org@@ 1
organisation@@ 1
orld 1
orm@@ 1
os 1
ote@@ 1
oun@@ 1
ournam@@ 1
participant@@ 1
people@@ 1
perpetrat@@ 1
ph@@ 1
pielberg@@ 1
pixels 1
playlists 1
polic@@ 1
pos@@ 1
post@@ 1
pr@@ 1
prerequisit@@ 1
press@@ 1
primary_conference 1
profess@@ 1
pub@@ 1
q@@ 1
rade@@ 1
raf@@ 1
rag@@ 1
ragu@@ 1
railway 1
railway@@ 1
raised 1
rama 1
reasur@@ 1
record@@ 1
rect@@ 1
red@@ 1
rel@@ 1
report@@ 1
reporte@@ 1
repre@@ 1
representative 1
requ@@ 1
ress 1
review 1
ridg@@ 1
round 1
s) 1
s)@@ 1
sche@@ 1
schedu@@ 1
scho@@ 1
scor@@ 1
se' 1
sent@@ 1
serv@@ 1
shi@@ 1
sho@@ 1
slow@@ 1
smal@@ 1
so 1
son" 1
sourc@@ 1
spe@@ 1
ss@@ 1
stadium@@ 1
stay@@ 1
ston 1
structure" 1
suc@@ 1
sus@@ 1
system@@ 1
t" 1
ta' 1
tal@@ 1
tar@@ 1
technician 1
temperature@@ 1
thal@@ 1
thapuri 1
them@@ 1
thi@@ 1
thiop@@ 1
thre@@ 1
ties 1
time" 1
to" 1
to@@ 1
toge@@ 1
ton 1
ton@@ 1
tonn@@ 1
tot@@ 1
total@@ 1
tr@@ 1
trade@@ 1
tradition@@ 1
trans@@ 1
treatment 1
trucks 1
ty 1
typ@@ 1
ubowitz@@ 1
uck@@ 1
ue. 1
uite 1
ul 1
ul@@ 1
ular 1
ultz@@ 1
uman 1
und 1
und@@ 1
unit@@ 1
urden 1
urers 1
urn@@ 1
uro@@ 1
urr@@ 1
urs 1
uruvayur 1
use@@ 1
usic 1
uss@@ 1
ustrali@@ 1
val@@ 1
vehic@@ 1
vehicle@@ 1
ver 1
vi@@ 1
vide@@ 1
vil@@ 1
ville" 1
vis@@ 1
visi@@ 1
vision@@ 1
voc@@ 1
voluptatem@@ 1
vsk@@ 1
war@@ 1
ward@@ 1
way 1
way@@ 1
week@@ 1
wi@@ 1
wich@@ 1
wif@@ 1
wor@@ 1
working@@ 1
workshop@@ 1
wrestl@@ 1
wro@@ 1
xels 1
xonMo@@ 1
xt 1
y" 1
ybo@@ 1
yed 1
yla" 1
yle" 1
ym@@ 1
yman@@ 1
you@@ 1
youn@@ 1
young@@ 1
z 1
z@@ 1
zeiler' 1
madeupword0000 0
madeupword0001 0
madeupword0002 0
madeupword0003 0
madeupword0004 0
madeupword0005 0
madeupword0006 0
