FROM 6426
SELECT 6062
= 5653
AS 5393
WHERE 3177
JOIN 3032
ON 2988
BY 2735
, 2398
T1 2032
T2 2024
count(*) 1448
GROUP 1443
ORDER 1292
LIMIT 878
1 843
DESC 831
> 595
AND 561
T3 450
name 389
(SELECT 364
DISTINCT 360
HAVING 353
t2 334
t1 326
T1.name 319
T2.@@ 303
COUNT(*) 300
T1.@@ 285
< 223
T2.name 213
IN 210
INTERSECT 198
T1.id 191
count(DISTINCT 191
customers 191
>= 186
OR 178
NOT 177
city 177
T3.@@ 174
2 167
EXCEPT 164
Name 164
ASC 161
" 154
YEAR 153
t3 153
student 149
) 148
products 145
LIKE 137
T1.customer_id 137
3 134
country 134
employees 128
' 118
people 116
Student 115
T2.customer_id 109
T2.Name 104
title 104
t1.@@ 103
first_name 100
LOCATION 98
"@@ 96
Customers 95
department 95
player 94
T3.name 90
T2.id 88
age 88
!= 87
avg(@@ 87
max(@@ 87
salary 87
CLASS 86
song 83
artist 80
Person 77
StuID 77
TYPE 76
party 75
T1.Name 73
course 73
last_name 73
min(@@ 70
club 67
Age 66
Rating 66
STUDENT 66
department_id 66
station 66
t2.@@ 66
BETWEEN 65
T1.driverid 65
customer_id 64
staff 64
t2.customer_id 64
'@@ 63
T1.year 63
WINE 62
dept_name 62
t1.customer_id 62
id 61
5 60
T1.custid 58
customer 58
film 58
College 57
Faculty 57
Movie 56
tryout 56
school 55
sum(@@ 55
Documents 54
T4 54
Accounts 53
PersonFriend 53
company 53
document_type_code 53
role_code 53
* 52
UNION 52
_@@ 52
airports 52
dorm 51
instructor 51
member 51
product 51
campuses 50
manufacturers 50
T2.People_ID 49
phone 49
ship 49
( 48
%" 47
Country 47
T1.StuID 47
t1.name 47
100 46
1; 46
T1.mID 46
building 46
t1.customer_name 46
Rooms 45
Team 45
classroom 45
2000 44
T1.first_name 43
addresses 43
gender 43
list 43
state 43
10 42
Apartments 42
T1.student_id 42
T2.staff_id 42
T3.id 42
city_code 42
order_items 42
orders 42
T2.year 41
customer_orders 41
election 41
races 41
rank 41
T1.artist_name 40
T1.dept_code 40
T2.balance 40
T2.product_id 40
T2.title 40
college 40
date 40
problems 40
sex 40
songs 40
Aircraft 39
employee 39
zip_code 39
T1.staff_id 38
T2.course_id 38
T2.custid 38
T2.friend 38
accounts 38
cName 38
papers 38
product_id 38
team 38
"%@@ 37
%' 37
Addresses 37
T1.city 37
T2.first_name 37
T2.mID 37
documents 37
drivers 37
member_of_club 37
t1.clubid 37
t2.clubid 37
t2.stuid 37
t3.stuid 37
T1.last_name 36
T2.driverid 36
authorship 36
match_season 36
t1.clubname 36
t1.product_id 36
20 35
mountain 35
t2.product_id 35
trip 35
vocals 35
Employee 34
Flight 34
T2.dormid 34
VOTING_RECORD 34
authors 34
checking 34
county 34
course_id 34
physician 34
professor 34
50 33
Nationality 33
T2.code 33
T2.lastname 33
employee_id 33
<= 32
Employees 32
Fname 32
Reviewer 32
T1.customer_name 32
T1.rID 32
origin 32
t2.paperid 32
weather 32
4 31
Staff 31
T1.course_id 31
T1.title 31
T2.last_name 31
semester 31
"; 30
Student_Course_Enrolment 30
T2.emp_num 30
avg(age) 30
document_id 30
document_name 30
projects 30
s) 30
Customers_cards 29
POSITION 29
S@@ 29
Sportsinfo 29
T1.bandmate 29
T1.product_id 29
T2.artist_name 29
district 29
fname 29
results 29
savings 29
track 29
university 29
1000 28
Students 28
T2.project_id 28
Tourist_Attractions 28
address 28
departments 28
gymnast 28
i@@ 28
lname 28
t1.product_name 28
tracks 28
volume 28
; 27
Band 27
Products 27
State 27
T1.People_ID 27
T1.project_id 27
T2.address_id 27
advisor 27
bank 27
director 27
e@@ 27
enroll 27
entrepreneur 27
product_name 27
routes 27
t3.@@ 27
technician 27
"San 26
'%@@ 26
CHARACTERISTICS 26
Companies 26
Financial_transactions 26
Projects 26
T1.address_id 26
T2.dept_code 26
T2.order_id 26
T3.Name 26
captain 26
customer_name 26
dorm_amenity 26
order_id 26
pilot 26
policy_type_code 26
product_category_code 26
region 26
stadium 26
submission 26
2010 25
T1.country 25
T1.department_id 25
T2.Tourist_Attraction_ID 25
T2.songid 25
T2.student_id 25
branch 25
county_public_safety 25
faculty 25
invoices 25
student_id 25
wrestler 25
COURSE 24
Claims 24
Has_allergy 24
T1.FacID 24
T1.Tourist_Attraction_ID 24
T1.city_id 24
T1.crs_code 24
T1.stars 24
T2.dept_name 24
T2.stu_num 24
actor 24
has_amenity 24
id) 24
product_characteristics 24
t1.authid 24
t2.authid 24
t3.paperid 24
teachers 24
1) 23
Courses 23
Player 23
T1.aid 23
T1.course_name 23
T1.lname 23
T1.team_id 23
T2.actid 23
T2.firstname 23
T2.physician 23
T2.raceid 23
TRACK 23
a" 23
apt_type_code 23
candidate 23
capacity 23
e" 23
email_address 23
enr 23
files 23
languages 23
payment_method_code 23
product_type_code 23
t1.lname 23
Faculty_participates_in 22
Lname 22
Performance 22
Songs 22
Status 22
Studio 22
T1.company_id 22
T2.aid 22
T3.balance 22
T4.@@ 22
TRANSACTIONS 22
University" 22
Video_games 22
assignedto 22
distance 22
enzyme 22
hire_date 22
musical 22
scientists 22
services 22
Advisor 21
Industry 21
T1.age 21
T1.employeeid 21
T1.fname 21
T1.reported_by_staff_id 21
T1.songid 21
T2.branch_id 21
T2.customer_first_name 21
T2.department_id 21
T2.team_id_br 21
airport 21
albums 21
book_club 21
card_type_code 21
job 21
main_industry 21
major 21
open_year 21
patient 21
project_id 21
shop 21
storm 21
t2.campus 21
t2.characteristic_id 21
"B@@ 20
"L@@ 20
Apartment_Bookings 20
CUSTOMER 20
D@@ 20
DEPARTMENT 20
Major 20
Party 20
RESULT 20
Reservations 20
T1.Gymnast_ID 20
T1.Room 20
T1.SongId 20
T1.claim_id 20
T1.dormid 20
T1.party_id 20
T2.product_name 20
T3.SongId 20
climber 20
competition 20
count(@@ 20
e_@@ 20
loan 20
medicine_enzyme_interaction 20
phone_number 20
procedures 20
- 19
200 19
5000 19
Allergy_type 19
Certificate 19
Course_Authors_and_Tutors 19
HOST 19
HOTELS 19
Price 19
SECTION 19
T1.Party 19
T1.building_id 19
T1.cName 19
T1.classroom 19
T1.order_id 19
T1.stuid 19
T1.surname 19
T2.Country 19
T2.amenid 19
T2.cName 19
T2.class_code 19
T2.classroom 19
T2.emp_fname 19
VISITS 19
aircraft 19
airlines 19
artist_name 19
complaints 19
date_@@ 19
exhibition 19
firstname 19
founded 19
g@@ 19
inst 19
medicine 19
race 19
ref_colors 19
s 19
t3.characteristic_id 19
user_profiles 19
y" 19
"A@@ 18
'Boston 18
2009 18
300 18
Allergy 18
C@@ 18
COUNT 18
Carrier 18
Denomination 18
G@@ 18
Red 18
T1.branch_id 18
T1.region_id 18
T2.Hometown 18
T3.amenid 18
T3.crs_code 18
T3.custid 18
affected_region 18
catalog_contents 18
channel 18
cust_name 18
headquarter 18
movie 18
pPos 18
payment_method 18
product_price 18
program 18
store 18
sum(T1.@@ 18
t3.lname 18
t3.title 18
"G@@ 17
"M@@ 17
"N@@ 17
"null" 17
'F' 17
'M@@ 17
APPELLATIONS 17
F@@ 17
Height 17
L@@ 17
MATCH 17
Nominee 17
Sex 17
T1.apt_id 17
T1.eid 17
T1.player_id 17
T1.state 17
T1.stu_num 17
T2.Party_ID 17
T2.StuID 17
T2.apt_id 17
T2.customer_last_name 17
T2.pID 17
T2.player_id 17
T2.station_id 17
T3.dept_name 17
T3.product_id 17
_name 17
allergytype 17
es) 17
gtype 17
price 17
publisher 17
review 17
room 17
roomName 17
state_province_county 17
status 17
t1.fname 17
t2.id 17
t2.instid 17
t2.order_id 17
") 16
"E@@ 16
"F@@ 16
"Los 16
'yes' 16
200@@ 16
8 16
Angeles" 16
Date 16
FACULTY 16
LastName 16
Lessons 16
Project_Staff 16
ROLES 16
Services 16
Settlements 16
Stockings' 16
T1.account_id 16
T1.booking_start_date 16
T1.f_id 16
T1.i_id 16
T1.raceid 16
T1.staff_name 16
T1.storm_id 16
T1.track_id 16
T2.Appelation 16
T2.author_id 16
T2.f_id 16
T2.genre_id 16
T2.i_id 16
T2.rID 16
T2.track_id 16
T3.dormid 16
available_policies 16
avg(T1.@@ 16
campus 16
dept_code 16
film_market_estimation 16
ing" 16
location_code 16
mID 16
policies 16
s" 16
s@@ 16
school_code 16
song_name 16
star_rating_code 16
t1.id 16
t3.characteristic_name 16
teaches 16
'; 15
10@@ 15
2002 15
30 15
ALBUM 15
COUNT(DISTINCT 15
Documents_with_expenses 15
M@@ 15
N@@ 15
Plays_games 15
Population 15
Project_outcomes 15
Rank 15
T1.Aircraft_ID 15
T1.cust_id 15
T1.cust_name 15
T1.emp_num 15
T1.forename 15
T1.gender 15
T1.organisation_id 15
T1.pID 15
T2.Party 15
T2.Service_Type_Code 15
T2.country 15
T2.stuid 15
T3.amenity_name 15
T3.dept_code 15
VISITORS 15
broadcast 15
budget 15
cinema 15
customer_details 15
customer_phone 15
decor 15
destination 15
e) 15
elimination 15
grade 15
height 15
item 15
lives_in 15
market 15
min(age) 15
p@@ 15
perpetrator 15
rating 15
revenue 15
role_description 15
t1.campus 15
t3.fname 15
train 15
"S@@ 14
"english" 14
'A@@ 14
'B@@ 14
'C@@ 14
18 14
ARTIST 14
B@@ 14
Grants 14
Headquarters 14
OWNER 14
P@@ 14
Product_Name 14
Ref_document_types 14
T1.Appelation 14
T1.Service_Type_Code 14
T1.facID 14
T1.film_id 14
T1.prof_num 14
T1.scientist 14
T1.station_id 14
T1.subject_id 14
T2.GenreId 14
T2.company_id 14
T2.facID 14
T2.film_id 14
T2.languages 14
T2.region_id 14
T3.title 14
TOURIST_ATTRACTIONS 14
_id 14
a 14
affiliation 14
appointment 14
ar@@ 14
body_builder 14
chip_model 14
csu_fees 14
customer_addresses 14
degrees 14
device 14
editor 14
festival_detail 14
game 14
gas_station 14
headquarters 14
home_game 14
institution 14
job_id 14
lastname 14
le@@ 14
music_festival 14
name) 14
publication 14
representative 14
t1.color_code 14
t3.name 14
y) 14
"F" 13
"John 13
'Alice' 13
(DISTINCT 13
A@@ 13
Documents_to_be_destroyed 13
Drama_Workshop_Groups 13
EMPLOYEE 13
GENRE 13
How_to_Get_There 13
LName 13
T1.ArtistId 13
T1.Manufacturer 13
T1.SupportRepId 13
T1.apid 13
T1.artist_id 13
T1.campus 13
T1.dept_name 13
T1.dorm_name 13
T1.project 13
T2.Tourist_ID 13
T2.alid 13
T2.decision 13
T2.director 13
T2.eid 13
T2.order_status 13
T3.SSN 13
T4.dept_code 13
Winery 13
_description 13
and 13
avg(T2.@@ 13
catalog_entry_name 13
clubname 13
crs_code 13
dorm_name 13
founder 13
hosting_city 13
injury_accident 13
journalist 13
max_page_size 13
or@@ 13
organizations 13
park 13
postseason 13
re@@ 13
region_name 13
resolution 13
seating 13
station_id 13
stu_gpa 13
student_course_registrations 13
t2.store_id 13
t3.order_id 13
transaction_type 13
"Bootup 12
"C@@ 12
"Janessa" 12
"K@@ 12
"Le 12
"T@@ 12
"United 12
"W@@ 12
'G@@ 12
+ 12
7@@ 12
Apartment_Buildings 12
Appelation 12
Baltimore" 12
Competition_type 12
FirstName 12
Order_items 12
Organisations 12
Pop" 12
T1.Aircraft 12
T1.Allergy 12
T1.Artist_ID 12
T1.GenreId 12
T1.class_code 12
T1.product_name 12
T1.school_id 12
T2.Allergy 12
T2.Artist_ID 12
T2.Lname 12
T2.RoomId 12
T2.Tourist_Details 12
T2.city 12
T2.department_name 12
T2.pPos 12
T2.party_id 12
T2.src_apid 12
T3.code 12
Y" 12
_type_code 12
acc_type 12
avg(T1.stars) 12
avg(balance) 12
avg(product_price) 12
basePrice 12
buildings 12
category 12
credit_score 12
document_type_name 12
driver 12
duration 12
er' 12
es 12
genres 12
instruments 12
nationality 12
nurse 12
pName 12
party_events 12
person 12
price_range 12
store_district 12
student_capacity 12
t1.sex 12
t1.songid 12
t1.store_id 12
t2.address_id 12
t2.color_description 12
t2.customer_details 12
t2.songid 12
t2.year 12
"D@@ 11
"Heilo" 11
"Sawayn"; 11
'M' 11
'United 11
'Y' 11
'goalie' 11
2004 11
25 11
6@@ 11
90 11
County_name 11
Document_locations 11
Grand 11
Investor 11
Prix" 11
Shop_Name 11
Software_Platform 11
T1.Address_ID 11
T1.City_Town 11
T1.Country_id 11
T1.County_id 11
T1.DNO 11
T1.Musical_ID 11
T1.Shop_ID 11
T1.lastname 11
T1.member_id 11
T1.stu_fname 11
T2.Address_ID 11
T2.Height 11
T2.advisor 11
T2.campus 11
T2.city_id 11
T2.cust_id 11
T2.host_city 11
T2.medicine_id 11
T2.school_id 11
T2.treatment 11
T3.Title 11
T3.Tourist_ID 11
T3.activity_name 11
T3.aid 11
activity 11
affiliated_with 11
al_@@ 11
an@@ 11
architect 11
artwork 11
bedType 11
city) 11
courses 11
details 11
duration) 11
eid 11
endowment 11
er" 11
er@@ 11
ers) 11
locations 11
login_name 11
max(YEAR) 11
max(age) 11
on" 11
or) 11
performance 11
railway 11
s' 11
screen_mode 11
student_course_attendance 11
students 11
swimmer 11
t4 11
trained_in 11
y' 11
"Badlands" 10
"M" 10
"Rock" 10
'ACCT-211' 10
'P@@ 10
'Ph.D.' 10
'Spring' 10
2005 10
2008 10
2; 10
40 10
600 10
Building 10
Credits 10
Francisco 10
Guests 10
H@@ 10
HS 10
Ho@@ 10
Hometown 10
Invoices 10
O@@ 10
Payment_Method_Code 10
Payments 10
Points 10
Ref_@@ 10
Ref_Service_Types 10
Student_Tests_Taken 10
T1.Committee 10
T1.County 10
T1.EmployeeID 10
T1.Festival_ID 10
T1.Instructor 10
T1.LName 10
T1.M@@ 10
T1.S@@ 10
T1.Service_Type_Description 10
T1.Title 10
T1.alid 10
T1.firstname 10
T2.Author 10
T2.DNO 10
T2.G@@ 10
T2.Host_city_ID 10
T2.Winning_Aircraft 10
T2.allergytype 10
T2.investor_id 10
T2.party_name 10
T2.rating 10
T2.staff_address_id 10
T2.staff_last_name 10
T3.Tourist_Attraction_ID 10
T3.city 10
T3.dorm_name 10
T3.order_id 10
T3.rID 10
T3.songid 10
T3.staff_id 10
T@@ 10
Title 10
a' 10
account_id 10
at@@ 10
ation) 10
avg(price) 10
avg(salary) 10
basketball_match 10
budget_type_code 10
card_number 10
city_area 10
clublocation 10
cost 10
customers_policies 10
date_from 10
e' 10
elevation 10
email 10
employee_name 10
es@@ 10
event 10
f_id 10
farm_competition 10
flight 10
friend 10
head 10
instrument 10
manager 10
manager_id 10
max(T1.@@ 10
minister 10
parties 10
pitstops 10
problem_log 10
prof_high_degree 10
s_@@ 10
school_id 10
sportname 10
stu_fname 10
t1.people_id 10
t2.district_id 10
t2.people_id 10
t3.address_id 10
t3.district_id 10
t3.instid 10
takes 10
"P@@ 9
"Professor" 9
"back" 9
"food" 9
'D@@ 9
'Fall' 9
'History' 9
'T@@ 9
'male' 9
0 9
10000 9
10; 9
12000 9
2001 9
7 9
9 9
9@@ 9
A" 9
AVG(@@ 9
Activity 9
All_documents 9
Document_Types 9
FacID 9
I@@ 9
INVOICES 9
K@@ 9
Publisher 9
T1.Claim_id 9
T1.Country_name 9
T1.Mountain_ID 9
T1.Team 9
T1.attendance 9
T1.customer_details 9
T1.date_@@ 9
T1.document_id 9
T1.grant_id 9
T1.organisation_type 9
T1.pName 9
T1.patient 9
T1.project_details 9
T1.team_id_winner 9
T2.Aircraft_ID 9
T2.D@@ 9
T2.District 9
T2.Election_Cycle 9
T2.Hardware_Model_name 9
T2.How_to_Get_There 9
T2.Mountain_ID 9
T2.S@@ 9
T2.artist_id 9
T2.location_id 9
T2.organisation_id 9
T2.staff_first_name 9
T3.class_code 9
T5 9
Teachers 9
W@@ 9
_ID 9
_details 9
al@@ 9
amount 9
b 9
band 9
billing_country 9
browser 9
code) 9
customer_@@ 9
customer_contact_channels 9
d) 9
date) 9
date_of_@@ 9
film_id 9
flag 9
formats 9
gname 9
home_city 9
i_id 9
ing@@ 9
ing_@@ 9
job_history 9
la@@ 9
laptimes 9
membership_register_branch 9
ment) 9
mill 9
o@@ 9
of 9
on@@ 9
onscholarship 9
order_@@ 9
organisation_id 9
photos 9
prereq 9
ref_product_categories 9
roller_coaster 9
room_count) 9
staff_department_assignments 9
start_station_name 9
stock 9
store_id 9
sum(T2.@@ 9
t1.document_code 9
t2.color_code 9
t2.ship_id 9
t2.swimmer_id 9
temperature 9
the 9
transaction_type_code 9
u_id 9
useracct 9
"Edwards"; 8
"Hopkins 8
"Linda" 8
"Mar@@ 8
"Nancy" 8
"R@@ 8
"Rylan" 8
"Tennis 8
') 8
'Accounting' 8
'F@@ 8
'Statistics' 8
'TV 8
); 8
100000 8
100@@ 8
15 8
1850 8
2014 8
500 8
6 8
60 8
Author 8
CName 8
Club" 8
Comptroller 8
Customer_Policies 8
Destroyed_by_Employee_ID 8
ENROLLED_IN 8
Eliminated_By 8
Employees.@@ 8
Enterprises" 8
Headquarter 8
ID 8
INVOICE 8
LEVEL 8
Member 8
Participates_in 8
Points) 8
Police_force 8
Product_ID 8
Product_Price 8
Staff_Department_Assignments 8
T1.Host_ID 8
T1.Market_ID 8
T1.Party_ID 8
T1.Submission_ID 8
T1.Wrestler_ID 8
T1.actID 8
T1.author_id 8
T1.blockcode 8
T1.blockfloor 8
T1.booking_status_code 8
T1.category_id 8
T1.employee_id 8
T1.member_name 8
T1.name_first 8
T1.name_last 8
T1.s_id 8
T1.statement_id 8
T1.teacher_id 8
T2.FacID 8
T2.Fname 8
T2.Host_ID 8
T2.Market_ID 8
T2.Railway_ID 8
T2.Submission_ID 8
T2.Weeks_on_Top 8
T2.Wrestler_ID 8
T2.actor_id 8
T2.country_id 8
T2.department 8
T2.dept_store_id 8
T2.document_type_code 8
T2.f@@ 8
T2.milliseconds 8
T2.region_name 8
T2.school_name 8
T2.transaction_id 8
T2.uid 8
T3.DepartmentID 8
T3.Party_ID 8
T3.location_id 8
T3.staff_first_name 8
T3.staff_last_name 8
T3.storm_id 8
TIME 8
Tonnage 8
U@@ 8
Venue 8
_date 8
_id) 8
acceptance 8
active_to_date 8
ad@@ 8
apid 8
avg(mean_@@ 8
built_year 8
camera_lens 8
commission_pct 8
complaint_status_code 8
constructorid 8
cost) 8
county_ID 8
cust_id 8
customer_first_name 8
d@@ 8
date_of_birth 8
dept_name) 8
directed_by 8
document_@@ 8
document_type_description 8
er) 8
flno 8
interaction_type 8
ion 8
jobs 8
le" 8
max_temperature_f 8
membership_amount 8
o" 8
party_host 8
party_id 8
personal_name 8
problem_log_id 8
projects) 8
r@@ 8
region_id 8
regional_population 8
rental 8
sal@@ 8
service_name 8
st@@ 8
sum(gamesplayed) 8
t1.paperid 8
t1.year 8
t2.program_id 8
t2.service_id 8
t2.title 8
test_result 8
to 8
took_office 8
transaction_id 8
undergoes 8
users 8
web_client_accelerator 8
"%M@@ 7
"Carole" 7
"Football" 7
"Spring" 7
"UK" 7
"Vincent" 7
"bus" 7
"sesame" 7
'Banking' 7
'Canoeing' 7
'H@@ 7
'Kayaking' 7
'R@@ 7
'USA' 7
'Zach' 7
'female' 7
(*) 7
(salary) 7
1" 7
1990 7
1@@ 7
2016 7
3; 7
4@@ 7
5; 7
80 7
85 7
AVG(salary) 7
Amount_Claimed 7
Attendance 7
Award 7
Birth_Place 7
CV" 7
Catalog_Contents_Additional_Attributes 7
Code 7
Company_name 7
DName 7
Date_Claim_Made 7
Destruction_Authorised_by_Employee_ID 7
Division 7
EVENTS 7
Event@@ 7
Francisco" 7
Grape 7
In@@ 7
Jose 7
LOTS 7
Manufacturers 7
Open_Year 7
Party_Theme 7
People_ID 7
Player_Attributes 7
Price) 7
R@@ 7
Ref_locations 7
Starting_Year 7
Statements 7
States' 7
T1.City_ID 7
T1.County_name 7
T1.CustomerId 7
T1.DName 7
T1.FirstName 7
T1.Fname 7
T1.School_ID 7
T1.account_name 7
T1.code 7
T1.date 7
T1.emp_fname 7
T1.gameid 7
T1.manufacturer 7
T1.problem_id 7
T1.register_year 7
T1.role_code 7
T1.staff_gender 7
T1.stu_lname 7
T1.uid 7
T2.Age 7
T2.ArtistId 7
T2.CustomerId 7
T2.EmployeeID 7
T2.EmployeeId 7
T2.F@@ 7
T2.Mar 7
T2.Musical_ID 7
T2.Product_ID 7
T2.Product_Name 7
T2.building_id 7
T2.course_name 7
T2.document_id 7
T2.enroll_grade 7
T2.enzyme_id 7
T2.genre_is 7
T2.grant_id 7
T2.job_title_code 7
T2.role_code 7
T2.roomName 7
T2.screen_mode 7
T2.song_name 7
T2.start_station_id 7
T2.u_id 7
T3.course_id 7
T3.driverid 7
T3.forename 7
T3.raceid 7
T4.dept_name 7
Tasks 7
Wen" 7
Y@@ 7
_year 7
a@@ 7
act@@ 7
active 7
aid 7
al 7
allergy 7
an" 7
attendance) 7
avg(basePrice) 7
avg(enr) 7
b@@ 7
billing_state 7
book 7
bridge 7
c@@ 7
catalog_level_number 7
class_room 7
crs_description 7
customer_status_code 7
date_problem_reported 7
debate 7
distinct(@@ 7
donator_name 7
ed_@@ 7
enrollment 7
er_@@ 7
es' 7
et_@@ 7
f@@ 7
first_notification_of_loss 7
form@@ 7
genre_is 7
h@@ 7
in@@ 7
individuals 7
ing' 7
investor_id 7
ity) 7
journal_committee 7
label 7
lat 7
max(salary) 7
ment@@ 7
min(T2.@@ 7
open_date 7
order_quantity) 7
organization_contact_individuals 7
party_name 7
people_id 7
product_details 7
record 7
review) 7
s; 7
settlement_amount) 7
shop_id 7
start 7
station_company 7
stay 7
sum(enrollment) 7
sum(hours_played) 7
sum(revenue) 7
sum(t1.@@ 7
sum(transaction_amount) 7
supplier_id 7
t" 7
t1.ship_id 7
t2.document_code 7
t2.staff_id 7
t3.city 7
t3.headquartered_city 7
t3.product_id 7
ticket_price 7
tweets 7
typical_buying_price 7
y 7
year_opened 7
"%A@@ 6
"2010@@ 6
"BK" 6
"Banking" 6
"Computer 6
"Dayana 6
"Democratic" 6
"Fail" 6
"Fast 6
"Female" 6
"Herbs" 6
"Honolulu" 6
"London 6
"NEB" 6
"On 6
"Pass" 6
"Ro@@ 6
"Smith" 6
"walk" 6
'%M%' 6
'%a%' 6
'200@@ 6
'China' 6
'K@@ 6
'L@@ 6
'Lamberton' 6
'London' 6
'Marketing' 6
'New 6
'Psychology' 6
'mid' 6
'student' 6
10000000 6
111 6
150 6
1996 6
1999 6
2" 6
2017 6
3" 6
3000 6
3@@ 6
4" 6
5@@ 6
6000 6
70 6
Accreditation_type 6
Al@@ 6
Allergy_Type 6
Amount_Settled 6
As 6
Assets 6
Builder 6
Catalog_Contents 6
Category 6
City_Population 6
Coast" 6
County 6
Customer_Payments 6
Date_Payment_Made 6
Days_held 6
Device_ID 6
E@@ 6
Elimination 6
Enrollment 6
Ex@@ 6
Founded 6
GRADECONVERSION 6
GRAPES 6
Governor 6
Hall' 6
Harri@@ 6
INVESTORS 6
Info. 6
Instruments 6
J@@ 6
Kingdom" 6
Maintenance_Engineers 6
Market@@ 6
Movie) 6
Occupation 6
Order_Quantity) 6
PHOTOS 6
PRESIDENT_Vote 6
PRODUCTS 6
Part@@ 6
Participant@@ 6
People 6
Pilot_name 6
Product_Suppliers 6
RO@@ 6
Ref_budget_codes 6
Reign 6
Residence 6
Road" 6
Robel" 6
Room 6
SE@@ 6
Shark"; 6
Song 6
States" 6
StuID) 6
Student.@@ 6
Stuid 6
Subjects 6
T1.Address 6
T1.Artwork_ID 6
T1.CName 6
T1.Color 6
T1.District 6
T1.Famous_Title 6
T1.Film_ID 6
T1.Member_ID 6
T1.Model_name 6
T1.Result 6
T1.Time 6
T1.bname 6
T1.candidate_id 6
T1.club_id 6
T1.cmi_cross_ref_id 6
T1.college_id 6
T1.customer_address_id 6
T1.customer_first_name 6
T1.customer_last_name 6
T1.date_of_completion 6
T1.date_of_enrolment 6
T1.engineer_id 6
T1.exhibition_id 6
T1.f@@ 6
T1.formats 6
T1.guest_id 6
T1.job 6
T1.job_id 6
T1.location_code 6
T1.school_code 6
T1.state_province_county 6
T1.supplier_id 6
T1.u_id 6
T2.Airport_ID 6
T2.AlbumID 6
T2.Artwork_ID 6
T2.Attraction_Type_Code 6
T2.Days_held 6
T2.Film_ID 6
T2.MediaTypeId 6
T2.Member_ID 6
T2.Team_id 6
T2.account_id 6
T2.account_name 6
T2.bname 6
T2.candidate_id 6
T2.chip_model 6
T2.claim_id 6
T2.cmi_cross_ref_id 6
T2.crs_code 6
T2.date_of_@@ 6
T2.date_order_placed 6
T2.document_name 6
T2.exhibition_id 6
T2.fname 6
T2.guest_id 6
T2.hours 6
T2.interaction_type 6
T2.lname 6
T2.member_in_charge_id 6
T2.mountain_id 6
T2.name_first 6
T2.name_last 6
T2.order_status_code 6
T2.outcome_code 6
T2.personal_name 6
T2.prof_num 6
T2.project 6
T2.role_name 6
T2.salary 6
T2.subject_id 6
T2.subject_name 6
T3.Airport_ID 6
T3.Festival_ID 6
T3.Fname 6
T3.Location 6
T3.S@@ 6
T3.StuID 6
T3.crs_description 6
T3.game_id 6
T4.crs_code 6
T5.dept_code 6
T5.dept_name 6
Total_Points 6
_Details 6
_F@@ 6
_code 6
a') 6
acc_percent 6
address_content 6
address_line_1 6
airport_aircraft 6
an' 6
ap@@ 6
artist_id 6
attribute_data_type 6
audio 6
avg(T1.age) 6
avg(T2.rating) 6
avg(amount_of_transaction) 6
avg(bikes_available) 6
avg(campusfee) 6
avg(credit_score) 6
avg(enrollment) 6
avg(room_count) 6
ay@@ 6
balance) 6
bed@@ 6
bedType; 6
birth_country 6
budget_million) 6
building_@@ 6
campusfee 6
candidate_assessments 6
candidates 6
card 6
card_id 6
circuits 6
cloud_cover 6
co@@ 6
competition_type 6
complaint@@ 6
course_name 6
culture_company 6
customer_id) 6
customer_last_name 6
d" 6
date_to 6
department_name 6
department_stores 6
description 6
district_name 6
document_description 6
document_status_code 6
document_structure_code 6
e_id 6
emp_jobcode 6
en@@ 6
ers 6
event_id 6
exhibition_record 6
farm 6
followers 6
form_id 6
furniture 6
gradepoint) 6
grant_amount 6
grant_id 6
hours 6
il@@ 6
in 6
individual_last_name 6
invoice_date 6
job_title 6
journal 6
left_office 6
lo@@ 6
location_name 6
m@@ 6
manager_name 6
manufacturer 6
market_value) 6
match_id 6
max(Price) 6
maxOccupancy 6
max_@@ 6
max_speed 6
mean_@@ 6
member_name 6
middle_name 6
min(YEAR) 6
n@@ 6
nomination 6
num_of_@@ 6
ol@@ 6
openning_year 6
operate_company 6
oppose_rate 6
order_date 6
order_item@@ 6
order_status_code 6
organisation_Types 6
organisation_type_description 6
organization_id 6
organization_name 6
party_@@ 6
party_forms 6
playlist_tracks 6
playlists 6
poll_source 6
prescribes 6
price_in_dollars 6
problem_id 6
product_id) 6
product_suppliers 6
project_details 6
rID 6
rating) 6
resident_VOTE 6
ship_id 6
shipments 6
source_system_code 6
student) 6
sum(T2.amount) 6
sum(student_capacity) 6
t1.age 6
t1.channel_id 6
t1.organization_name 6
t1.party_email 6
t1.policy_type_code 6
t1.program_id 6
t1.service_id 6
t2.channel_id 6
t2.form_id 6
t2.policy_id 6
t2.time_of_day 6
t3.service_name 6
t@@ 6
te_id 6
te_name 6
title) 6
total) 6
train_station 6
type) 6
unit_of_measure 6
y_@@ 6
year 6
zip_postcode 6
"%D@@ 5
"Australian 5
"Balls 5
"Boeing 5
"Cat" 5
"Columbus 5
"Fall" 5
"Milk" 5
"Nokia 5
"O@@ 5
"Palo 5
"Pen 5
"bangla" 5
"mp3" 5
'American 5
'Biology') 5
'C' 5
'Dan' 5
'I@@ 5
'Pro@@ 5
'Public' 5
'S@@ 5
'inhibitor' 5
'researcher' 5
-2@@ 5
00 5
00@@ 5
1' 5
1500 5
16@@ 5
180 5
195@@ 5
1989 5
2007 5
2011 5
4000 5
737-800" 5
8" 5
Age) 5
Airlines' 5
Albums 5
Amount_Claimed) 5
Attribute_Definitions 5
Award" 5
BOOKINGS 5
Behavior_Incident 5
CMI_Cross_References 5
City 5
Customer_@@ 5
Customer_Name 5
Description 5
Details 5
Director 5
E 5
Election_Cycle 5
Engineer_Visits 5
Famous_Title 5
Gaming" 5
ID) 5
IN@@ 5
Injured 5
L' 5
LENGTH 5
Location_Name 5
Locations 5
Lounge' 5
MIN(salary) 5
MINOR_IN 5
MONTH 5
Medication 5
Num_of_@@ 5
Num_of_Audience 5
ORDER_ITEMS 5
Office_locations 5
Official_Name 5
Orders 5
Paper 5
Participants_in_Events 5
Phone_ID 5
Product_Type_Code 5
Publication_Date 5
Range 5
Rat@@ 5
Ref_Shipping_Agents 5
Ref_Shipping_Agents.shipping_agent_code 5
Res@@ 5
Research_Staff 5
Restaurant 5
Scores 5
Staff@@ 5
Student_Addresses 5
T1.AlbumId 5
T1.Area 5
T1.C@@ 5
T1.Club_ID 5
T1.D@@ 5
T1.Date_@@ 5
T1.Editor_ID 5
T1.Event_ID 5
T1.Graphics_mode 5
T1.Investor 5
T1.Participant_ID 5
T1.Product_ID 5
T1.Product_Name 5
T1.Representative_ID 5
T1.SSN 5
T1.Ship_ID 5
T1.Total_Points 5
T1.Year 5
T1.amenity_name 5
T1.building_@@ 5
T1.city_code 5
T1.company_name 5
T1.date_order_placed 5
T1.department_name 5
T1.director 5
T1.duration 5
T1.institution_id 5
T1.nationality 5
T1.park_id 5
T1.part_id 5
T1.part_name 5
T1.service_id 5
T1.technician_ID 5
T1.trade_name 5
T2.AlbumId 5
T2.Club_ID 5
T2.Company_name 5
T2.Editor_ID 5
T2.Event_ID 5
T2.Grape 5
T2.M@@ 5
T2.Position 5
T2.Representative_ID 5
T2.Ship_ID 5
T2.Shop_ID 5
T2.Shop_Name 5
T2.Store_Name 5
T2.Year 5
T2.albumid 5
T2.apt_number 5
T2.camera_lens_id 5
T2.customer_name 5
T2.dst_apid 5
T2.faculty 5
T2.invoice_number 5
T2.lot_id 5
T2.park_id 5
T2.people_id 5
T2.playlist_id 5
T2.position 5
T2.prof_office 5
T2.team_id 5
T3.product_name 5
T3.station_id 5
T3.stu_num 5
T4.product_id 5
T4.product_name 5
T5.@@ 5
TION@@ 5
Theme 5
Things 5
Third_Party_Companies 5
Total_Horses 5
Tourist_Details 5
Visit_Date 5
Year 5
_C@@ 5
_number 5
_type_code) 5
a"; 5
ac@@ 5
acc_bal 5
accelerator_compatible_browser 5
account_name 5
active_from_date 5
address_id 5
all" 5
amount_@@ 5
amount_piad) 5
an 5
asset_@@ 5
attendance 5
avg(Product_Price) 5
avg(distance) 5
avg(price_range) 5
avg(total_amount_purchased) 5
avg(transaction_amount) 5
ber@@ 5
bike_id 5
budgeted 5
building_id 5
catalog_publisher 5
characteristic_name 5
checking) 5
church 5
claim_headers 5
claims_processing_stages 5
coach 5
company_id 5
date_assigned_to 5
date_order_placed 5
debate_people 5
document_sections 5
dst_apid 5
e") 5
e"; 5
ed" 5
ed) 5
employee_@@ 5
ent) 5
er_id 5
erg@@ 5
event_details 5
family_name 5
film_actor 5
follows 5
ie" 5
ies 5
in" 5
in_@@ 5
ing 5
ing) 5
instrument) 5
inventory 5
is" 5
is@@ 5
it@@ 5
k 5
k@@ 5
li@@ 5
location 5
mailshot_customers 5
management 5
manufacturer_id 5
market@@ 5
market_value 5
max(T2.@@ 5
medication 5
member_id 5
mission 5
o 5
of_@@ 5
ou@@ 5
outcome_code 5
overall_rating 5
payment 5
player_award 5
policy" 5
preferred_foot 5
premises_type 5
product_@@ 5
product_category_description 5
product_description 5
products) 5
products_booked 5
rac@@ 5
rate 5
rate) 5
rental_rate 5
repair_assignment 5
resolution) 5
role_name 5
salary) 5
savings) 5
school_name 5
share_count 5
ssn 5
start_station_id 5
state) 5
stu_@@ 5
sum(amount) 5
sum(hoursperweek) 5
sum(no_of_customers) 5
sum(t3.order_quantity) 5
t 5
t"; 5
t1.document_name 5
t1.organization_id 5
t1.school_id 5
t1.staff_id 5
t1.station_id 5
t1.store_name 5
t1.title 5
t2.individual_id 5
t2.organization_id 5
t2.school_id 5
t2.stadium_id 5
t2.winning_pilot 5
t3.characteristic@@ 5
t3.sex 5
theme 5
time_of_day 5
tracklists 5
trade_name 5
ual_@@ 5
vehicle_id 5
venue 5
wedding 5
weekly_weather 5
y@@ 5
"1994 4
"2@@ 4
"3@@ 4
"4560596484842" 4
"4@@ 4
"5" 4
"600" 4
"AS" 4
"Accounting" 4
"Airbus 4
"An@@ 4
"Appropriations" 4
"Bernhard" 4
"Bosco" 4
"Brittany 4
"Cancelled" 4
"Central 4
"Clara") 4
"Col@@ 4
"Confirmed" 4
"Credit" 4
"De@@ 4
"Deputy" 4
"Duke" 4
"German@@ 4
"Goodwin@@ 4
"Google" 4
"H@@ 4
"Homenick" 4
"J@@ 4
"James 4
"Japan" 4
"Jazz" 4
"LA" 4
"Lucas" 4
"MPEG 4
"Male" 4
"Mancini"; 4
"Mountain 4
"NYC" 4
"Orton" 4
"Paper" 4
"Pending" 4
"Pop" 4
"ROY" 4
"SWEAZY"; 4
"Shipped" 4
"Solveig" 4
"Spain" 4
"Spices" 4
"Studio" 4
"Subway"; 4
"Tony 4
"Turcotte" 4
"Turon" 4
"UCLA" 4
"cumin" 4
"lead" 4
"modern@@ 4
'%D@@ 4
'%S@@ 4
'A' 4
'Alice') 4
'Atlanta'; 4
'Austin') 4
'CCTV' 4
'CIS-220' 4
'California' 4
'Ch@@ 4
'Comp. 4
'Computer 4
'Denmark' 4
'Finance' 4
'Hartford' 4
'Lieutenant' 4
'Midshipman' 4
'Morning' 4
'Physic@@ 4
'Psychiatry' 4
'Regular' 4
'Smith 4
'Sony' 4
'Study 4
'Surgery' 4
'Utah' 4
'Washington 4
'Zach') 4
'engineer') 4
'modern'; 4
(@@ 4
)" 4
-01-01" 4
-05' 4
-0@@ 4
00" 4
000 4
0000 4
11 4
120 4
15000 4
160 4
18000 4
1961 4
1980 4
1995 4
200000 4
2000; 4
2@@ 4
3) 4
30) 4
32 4
40) 4
46 4
50000 4
5000000 4
700 4
800 4
8000 4
80000 4
9-07@@ 4
:%" 4
A' 4
A340-300" 4
AR@@ 4
AVG 4
AVG(UnitPrice) 4
Amount_Payment 4
Area 4
Artist_ID) 4
Assessment_Notes 4
Assets_billion 4
AssignedTo) 4
Attraction_@@ 4
BLOCK 4
Budget_Type_code 4
COMPUTER 4
Cameron@@ 4
CheckIn 4
Co@@ 4
Committee 4
Country) 4
Country_name 4
Cows) 4
Cup 4
Customer@@ 4
Customer_Orders 4
Customers; 4
Date_Claim_Settled 4
Delegate 4
Detention 4
District_name 4
Document@@ 4
Documents.shipping_agent_code 4
Elimination_Move 4
Enrollment) 4
FDA_@@ 4
FIFA 4
Film_ID 4
GDP 4
Graphics_mode 4
Host_ID 4
Hours 4
IN( 4
Issue_Date 4
Jo@@ 4
LOCATIONS 4
Location 4
Lots 4
MAX(@@ 4
MEDIATYPE 4
MEMBER_OF 4
Maintenance_Contracts 4
Manufacturer 4
Marketing_Region_Code 4
Member_ID 4
Memory_in_G 4
Mountain_ID 4
Name) 4
Nationals' 4
Number_cities 4
Number_of_hosts 4
Opening_Hours 4
Oper@@ 4
Order_ID 4
Parts 4
Party" 4
Play@@ 4
Policy_Type_Code 4
Population) 4
Prescribes 4
PrimaryAffiliation 4
Prof@@ 4
RAPE 4
Ran@@ 4
Ref_Shipping_Agents.shipping_agent_name 4
Ref_calendar 4
Ref_colors 4
Region 4
Restaurant.ResID 4
Ro@@ 4
Room' 4
RoomId 4
Rooms; 4
S 4
ST@@ 4
STATEMENT_ID 4
SUM(T2.total) 4
SUM(total) 4
Sales_billion) 4
School_ID 4
Sci.' 4
Science" 4
Score 4
Ship_ID 4
Shop_ID 4
St@@ 4
States') 4
Status@@ 4
Stor@@ 4
Stories 4
Student) 4
Systems' 4
T 4
T1.Company 4
T1.Country_ID 4
T1.County_ID 4
T1.Customer_id 4
T1.Date_Claim_Settled 4
T1.EMP_NUM 4
T1.G@@ 4
T1.Grade 4
T1.Grape 4
T1.Launch@@ 4
T1.Location_ID 4
T1.MediaTypeId 4
T1.Money_Requested 4
T1.Museum@@ 4
T1.Official_Name 4
T1.Phone_ID 4
T1.Physician 4
T1.Railway_ID 4
T1.Rate 4
T1.SportName 4
T1.StagePosition 4
T1.Volume 4
T1.Workshop_Group_ID 4
T1.activity_name 4
T1.address_line_1 4
T1.apt_number 4
T1.balance 4
T1.brand 4
T1.circuitid 4
T1.color_code 4
T1.country_id 4
T1.customer_@@ 4
T1.customer_address 4
T1.date_claim_made 4
T1.dept_store_id 4
T1.document_type_code 4
T1.emp_lname 4
T1.employee_name 4
T1.fault_log_entry_id 4
T1.flno 4
T1.grant_start_date 4
T1.investor_id 4
T1.invoice_number 4
T1.movie_id 4
T1.outcome_code 4
T1.p@@ 4
T1.player_api_id 4
T1.player_name 4
T1.prereq_id 4
T1.prof_office 4
T1.property_id 4
T1.rank 4
T1.region_name 4
T1.registration_id 4
T1.reports_to 4
T1.stadium_id 4
T1.statement_details 4
T1.task_details 4
T1.task_id 4
T1.team_id_loser 4
T1.type 4
T1.workshop_id) 4
T2.CID 4
T2.Claim_id 4
T2.College 4
T2.Country_ID 4
T2.County_ID 4
T2.Date 4
T2.Location 4
T2.Location_ID 4
T2.SSN 4
T2.School_ID 4
T2.Song 4
T2.Type 4
T2.VICE_P@@ 4
T2.Volume_ID 4
T2.Weight 4
T2.Winery 4
T2.Workshop_Group_ID 4
T2.actID 4
T2.activity_name 4
T2.architect_id 4
T2.assigned_to_staff_id 4
T2.available_yn 4
T2.bedroom_count 4
T2.blockcode 4
T2.blockfloor 4
T2.book_club_id 4
T2.budget_type_code 4
T2.card_type_code 4
T2.category_id 4
T2.circuitid 4
T2.college_id 4
T2.color_code 4
T2.color_description 4
T2.customer_phone 4
T2.dept_address 4
T2.employee_id 4
T2.employer_organisation_id 4
T2.gameid 4
T2.guest_first_name 4
T2.institution_id 4
T2.invoice_date 4
T2.job_id 4
T2.job_title 4
T2.lettergrade 4
T2.master_customer_id 4
T2.media_type_id 4
T2.movie_id 4
T2.organisation_type 4
T2.patient 4
T2.person_id 4
T2.player_api_id 4
T2.points 4
T2.problem_id 4
T2.project_details 4
T2.registration_id 4
T2.resolution 4
T2.s_id 4
T2.ssn 4
T2.stars 4
T2.store_name 4
T2.storm_id 4
T2.teacher_id 4
T2.test_result 4
T2.theme 4
T2.wins 4
T3.Airport_Name 4
T3.F@@ 4
T3.Festival_Name 4
T3.cost 4
T3.credit_score 4
T3.cust_id 4
T3.document_description 4
T3.document_type_code 4
T3.emp_num 4
T3.location 4
T3.member_id 4
T3.project_id 4
T3.reported_by_staff_id 4
T3.surname 4
T3.team_id_br 4
T4.amenid 4
T4.bandmateid 4
T4.emp_num 4
T4.instrument 4
T4.name 4
T4.prof_office 4
T4.songid 4
T4.staff_first_name 4
T4.staff_id 4
T4.staff_last_name 4
Total 4
Type 4
UID 4
UM@@ 4
UR@@ 4
US@@ 4
Vehicles; 4
View" 4
View_Unit_Status 4
Visits_Restaurant.@@ 4
Vote_Perc@@ 4
Votes 4
W" 4
Wall"; 4
Weeks_on_Top 4
Weeks_on_Top) 4
World 4
Wrestler_ID 4
Writer 4
York' 4
Z@@ 4
_MAN' 4
_of_@@ 4
accelerator_id 4
account_opened 4
active_from_date) 4
affected_region) 4
ag@@ 4
ameID 4
amenity_name 4
amily_name 4
approved 4
apt_id 4
art@@ 4
artists 4
asessment_outcome_code 4
ate) 4
attribute_value 4
ault@@ 4
avg(Age) 4
avg(Gross_in_dollar) 4
avg(Order_Quantity) 4
avg(T1.HS) 4
avg(T1.Price) 4
avg(T1.price) 4
avg(T1.salary) 4
avg(T1.stu_gpa) 4
avg(T2.fastestlapspeed) 4
avg(access_count) 4
avg(capacity) 4
avg(no_of_customers) 4
avg(rating) 4
avg(revenue) 4
avg(stars) 4
avg(t1.@@ 4
avg(t3.age) 4
avg(weight) 4
bathroom_count 4
bedtype 4
bikes_available) 4
bname 4
book_club_id 4
book_title 4
born_state 4
budget@@ 4
budget_@@ 4
budget_type_description 4
building_full_name 4
candidate_id 4
catalog_level_name 4
catalogs 4
ch@@ 4
channel_code 4
characteristic_data_type 4
chool@@ 4
city_@@ 4
claim_id 4
class_@@ 4
club_rank 4
cmi_details 4
code; 4
color_code 4
constructor@@ 4
constructors 4
count(T1.reports_to) 4
count(departmentID) 4
country_id 4
county_id 4
coupon_id 4
course_id) 4
creation 4
credits 4
crs_credit 4
customer_code) 4
d"; 4
damage_millions_USD) 4
database" 4
date_assigned_from 4
date_formed 4
date_problem_reported) 4
date_valid@@ 4
de@@ 4
decor; 4
degrees) 4
departmentID 4
dept_address) 4
dept_store_chain_id 4
detent@@ 4
discipline_enrollments 4
district_id 4
do@@ 4
document_date 4
dormid 4
driver_id 4
driverstandings 4
du@@ 4
dults 4
e 4
eason 4
eature_ID 4
eatures 4
ed@@ 4
editor_id 4
el@@ 4
employees) 4
en" 4
en' 4
end_station_id 4
end_station_name 4
enreID 4
enrolment 4
ent 4
ent" 4
ers@@ 4
est" 4
et@@ 4
exhibition) 4
f 4
faculty) 4
feat@@ 4
file"; 4
film_category 4
floors 4
followers) 4
functional_areas 4
furniture_manufacte 4
g_name 4
gameid 4
gender_code 4
gh@@ 4
gress 4
guest_last_name 4
ham@@ 4
happy_hour 4
he@@ 4
hi@@ 4
high_@@ 4
hometown 4
host@@ 4
hours) 4
id@@ 4
ident@@ 4
ient@@ 4
il" 4
image_name 4
images 4
in_location_from 4
in_locaton_to 4
individual_@@ 4
ing') 4
installation_date 4
invoice_number 4
ion@@ 4
ity 4
journal_ID 4
language_id 4
lesson_status_code 4
lin" 4
line_@@ 4
loan) 4
local_authority 4
log_entry_date 4
lot_details 4
manag@@ 4
max(Score) 4
max(T1.stars) 4
max(T2.resolution) 4
max(hours) 4
max(revenue) 4
max_salary 4
media_types 4
membership_amount) 4
ment_@@ 4
min(oppose_rate) 4
min(salary) 4
min_dew_point_@@ 4
min_salary 4
min_temperature_f 4
name@@ 4
name_first 4
name_full 4
name_last 4
news_report 4
ni@@ 4
no_of_@@ 4
number_deaths 4
o' 4
on_call 4
oney_Requested) 4
or" 4
or_@@ 4
order_status 4
organisation_details 4
other_characteristic_details 4
other_hotel_details 4
oun@@ 4
participants 4
participates_in 4
party_services 4
payment_method_@@ 4
people_addresses 4
person_id 4
pets_allowed_yn 4
phone_market 4
pilot_record 4
player_api_id 4
player_college 4
policy_id 4
pon@@ 4
population 4
premises 4
prereq) 4
protein 4
qualification" 4
raceId 4
ratingDate 4
rating_in_percent 4
region_code 4
releasedate 4
rental_date 4
res@@ 4
resident_Vote 4
ro@@ 4
room@@ 4
schedule 4
scientist 4
sea_level_pressure_inch@@ 4
section_id 4
settlements 4
ship@@ 4
shipment_@@ 4
short_name 4
sider_@@ 4
son' 4
st_@@ 4
st_year 4
staff_details 4
staff_first_name 4
staff_last_name 4
stars) 4
start_date 4
statement_details 4
stock) 4
stored 4
storm_id 4
stu_gpa) 4
student_capacity) 4
student_course_attendance) 4
student_details 4
stuid 4
sum(acc_bal) 4
sum(city_population) 4
sum(enr) 4
sum(market_value) 4
sum(t2.order_quantity) 4
t1.Type 4
t1.campusfee 4
t1.catalog_entry_id 4
t1.catalog_entry_name 4
t1.country 4
t1.document_structure_code 4
t1.instid 4
t1.order_id 4
t1.party_id 4
t2.Time_of_day 4
t2.catalog_entry_id 4
t2.catalog_level_number 4
t2.party_id 4
t2.rank 4
t2.support_rate 4
t3.District_name 4
t3.age 4
t3.campus 4
t3.customer_id 4
t3.degrees 4
t3.functional_area@@ 4
t3.major 4
t3.policy_id 4
t3.policy_type_code 4
t3.service_id 4
t3.state_province_county 4
t3.year 4
t4.color_code 4
t4.color_description 4
t4.product_details 4
t4.product_id 4
ta@@ 4
team_name 4
technician_id 4
temperature) 4
title; 4
total 4
tourist_attraction_id 4
town_city 4
track_id 4
transaction_amount) 4
ures 4
user_login 4
weight 4
x 4
x' 4
y") 4
year_join 4
yearid 4
"%Diana%" 3
"%a%" 3
"12@@ 3
"1978-06-26" 3
"197@@ 3
"1989-09-03" 3
"2007-12-25" 3
"8/%" 3
"9@@ 3
"A 3
"A4" 3
"ACCT-211" 3
"Ashley" 3
"Astrid" 3
"Bangladesh" 3
"Bran@@ 3
"CA"; 3
"CHI" 3
"CV" 3
"Call 3
"Canada" 3
"Cancelle@@ 3
"Ch@@ 3
"Chinese 3
"Christop" 3
"Close 3
"Dav@@ 3
"David 3
"Defender" 3
"Der 3
"Ebba" 3
"Emma" 3
"Giuliano" 3
"Grub@@ 3
"Jeramie" 3
"Kim" 3
"Lacross@@ 3
"MOYER" 3
"Marianne" 3
"Mark" 3
"Medhurst" 3
"Monaco 3
"Morning" 3
"New 3
"OTHA" 3
"Orang@@ 3
"PUR" 3
"Pro@@ 3
"Provisional" 3
"Rodrick 3
"Shi@@ 3
"Stev@@ 3
"Texas" 3
"U@@ 3
"UK 3
"USA" 3
"Vil@@ 3
"White" 3
"animal") 3
"done" 3
"flax" 3
"hot" 3
"voluptatem" 3
"white" 3
'1' 3
'And@@ 3
'Ar@@ 3
'Australi@@ 3
'Beijing' 3
'Bob' 3
'Brown' 3
'Canada' 3
'Clo@@ 3
'E@@ 3
'FL') 3
'Friendly' 3
'Latte' 3
'Math' 3
'Night' 3
'O@@ 3
'Pa@@ 3
'Patent' 3
'Procrastin-X' 3
'QM-261' 3
'Research' 3
'S%' 3
'SF' 3
'Smithson' 3
'Son@@ 3
'Tokyo' 3
'Tournament' 3
'Visa' 3
'Win' 3
'activitor' 3
'doctor' 3
'saving' 3
'striker' 3
0; 3
1.@@ 3
12 3
140 3
18@@ 3
190 3
19@@ 3
2012 3
23 3
30000 3
301 3
31 3
345@@ 3
36 3
37.@@ 3
4; 3
5" 3
841) 3
8@@ 3
99 3
AD@@ 3
AL@@ 3
AMI@@ 3
AVG(Price) 3
AVG(T2.@@ 3
Account@@ 3
Accounts) 3
Address 3
Airport_Name 3
Alto" 3
Amount_Settled) 3
Apartment_Facilities 3
Ar@@ 3
Art@@ 3
Artist 3
Ass@@ 3
Bill@@ 3
Birth_Date 3
Book@@ 3
Bookings 3
COUNT(employee_id) 3
COURSES 3
CRS_CODE 3
CUSTOMERS 3
Character 3
Circulation_History 3
Circulation_History.@@ 3
City@@ 3
Class_Senator_Vote 3
Col@@ 3
Compan@@ 3
Corporation"; 3
Crew" 3
Crime_rate 3
Customer_Event_ID 3
Customer_Phone 3
D 3
DEPT_NAME 3
Date_of_ceremony 3
Delivery_Rout@@ 3
Destiny" 3
District 3
Documents.@@ 3
Domestic_Passeng@@ 3
Draft@@ 3
ER@@ 3
Email 3
Email_Address 3
Employe@@ 3
Event_ID 3
F 3
Famous_Release_@@ 3
Fault_Log 3
Fault_Log_Parts 3
Festival_Name 3
Financial_Transactions 3
Fir@@ 3
Gallery" 3
Gatwick" 3
HS) 3
Heaney" 3
Heathrow" 3
Hor@@ 3
International 3
International_Passengers 3
Invoic@@ 3
Ite@@ 3
Join_@@ 3
KG@@ 3
Kapitan" 3
Kentuck@@ 3
Kertzman@@ 3
LE@@ 3
LEVEL) 3
La@@ 3
Le@@ 3
Lounge') 3
Low_Estimate 3
Market_Value_@@ 3
Money_Requested 3
Number_Deaths 3
Number_cities) 3
Open_Date 3
Order_Date 3
Other_@@ 3
POSITION) 3
PS"; 3
Park@@ 3
Party' 3
Person" 3
Phone 3
Player_name 3
Po@@ 3
Police_officers 3
Product@@ 3
Product_price 3
Products_for_hire 3
Project 3
RAM_MiB) 3
Ref_Document_@@ 3
Ref_Transaction_Types 3
Regional_Population 3
Registration_Date 3
ResType@@ 3
Research_outcomes 3
Restaurant.ResName 3
S' 3
STOP 3
Se@@ 3
Skills 3
Smith@@ 3
Sp@@ 3
Staff; 3
Staff_Roles 3
Status_Code 3
Stores 3
T1.Affirmative 3
T1.Book_ID 3
T1.Coach_ID 3
T1.Colleg@@ 3
T1.College_ID 3
T1.Company_ID 3
T1.Debate_ID 3
T1.Description 3
T1.Device_ID 3
T1.EMP_@@ 3
T1.Fate 3
T1.HS 3
T1.Height 3
T1.ID 3
T1.Investor_details 3
T1.Journal_ID 3
T1.LastName 3
T1.Performance_ID 3
T1.Pilot_ID 3
T1.Player 3
T1.Player_ID 3
T1.Population 3
T1.RAM_MiB 3
T1.Store_Email_Address 3
T1.Store_Phone 3
T1.Total 3
T1.Type 3
T1.White 3
T1.actor_id 3
T1.allergy 3
T1.amenid 3
T1.architect_id 3
T1.b@@ 3
T1.bandmateid 3
T1.booking_id 3
T1.county 3
T1.course_description 3
T1.customer_phone 3
T1.date_problem_reported 3
T1.end_station_id 3
T1.facility_code 3
T1.hours 3
T1.incident_type_code 3
T1.journalist_ID 3
T1.line_1 3
T1.lot_details 3
T1.lot_id 3
T1.machine_id 3
T1.maintenance_contract_id 3
T1.master_customer_id 3
T1.other_account_details 3
T1.people_id 3
T1.personal_name 3
T1.prof_high_degree 3
T1.season 3
T1.service_type_code 3
T1.sex 3
T1.skill_id 3
T1.ssn 3
T1.student_capacity 3
T1.supplier_name 3
T1.supplier_phone 3
T1.theme 3
T1.thing_id 3
T1.train_id 3
T1.transaction_type_code 3
T1.vehicle_id 3
T1.zip_postcode 3
T2.Book_ID 3
T2.C@@ 3
T2.CLASS@@ 3
T2.Coach_ID 3
T2.College_ID 3
T2.Crime_rate 3
T2.Debate_ID 3
T2.ID 3
T2.Jul 3
T2.P@@ 3
T2.PCP 3
T2.PROF_NUM 3
T2.Participant_ID 3
T2.Player 3
T2.Score 3
T2.Treasurer_Vote 3
T2.address 3
T2.age 3
T2.apt_type_code 3
T2.bikes_available 3
T2.browser_id 3
T2.building 3
T2.company 3
T2.do@@ 3
T2.duration 3
T2.employee_name 3
T2.engineer_id 3
T2.f1 3
T2.f2 3
T2.game_id 3
T2.gradepoint 3
T2.head_id 3
T2.inventory_id 3
T2.loan_type 3
T2.machine_id 3
T2.medication 3
T2.member_id 3
T2.organisation_details 3
T2.park_name 3
T2.part_id 3
T2.product_description 3
T2.product_price 3
T2.room_number 3
T2.service_id 3
T2.stadium_id 3
T2.supplier_id 3
T2.support_rep_id 3
T2.thing_id 3
T2.total_@@ 3
T3.Code 3
T3.Company_ID 3
T3.EMP@@ 3
T3.Journal_ID 3
T3.People_ID 3
T3.Performance_ID 3
T3.Pilot_ID 3
T3.Player_ID 3
T3.Player_name 3
T3.Theme 3
T3.born_state 3
T3.brand 3
T3.city_id 3
T3.company_id 3
T3.country_id 3
T3.gender 3
T3.head_id 3
T3.journalist_ID 3
T3.organisation_type 3
T3.service_id 3
T3.stu_lname 3
T3.technician_ID 3
T3.train_id 3
T4.amenity_name 3
T4.country_id 3
T4.country_name 3
T4.dormid 3
T4.host_city 3
T4.id 3
TE@@ 3
Thing_Code 3
Typ@@ 3
Types 3
V@@ 3
Vehicles 3
Visits_Restaurant 3
Visits_Restaurant.ResID 3
Weight 3
X' 3
Year_@@ 3
Years_Played 3
Years_working 3
_FNAME 3
_P@@ 3
_T@@ 3
_Type 3
_code) 3
_type_@@ 3
access_count 3
address_@@ 3
address_details 3
address_id) 3
age) 3
ai@@ 3
airport_id 3
al" 3
ales 3
am@@ 3
amount_of_transaction 3
amount_outstanding 3
apt_number 3
architect_id 3
ard" 3
ard@@ 3
arketing_Region_Code 3
as" 3
asset_model 3
ast@@ 3
atient 3
ation_@@ 3
attribu@@ 3
author@@ 3
average_attendance 3
avg(Points) 3
avg(Price) 3
avg(S@@ 3
avg(T3.@@ 3
avg(height) 3
avg(hours) 3
avg(resolution) 3
avg(stu_gpa) 3
avg(ticket_price) 3
band@@ 3
basePrice; 3
billing_@@ 3
birth@@ 3
bl@@ 3
blockcode 3
booked_count) 3
booking_end_date 3
booking_id 3
booking_start_date 3
budget) 3
budget_in_bill@@ 3
building_manager 3
calendar_date 3
catalog@@ 3
catalog_structure 3
cell_mobile_number 3
church_id 3
cinema_id 3
ck_@@ 3
claim_head@@ 3
claim_stage_id 3
claim_status_name 3
clubdesc 3
cmi_cross_ref_id 3
cmi_cross_references 3
college) 3
color 3
company_name 3
con@@ 3
contact_staff_id 3
council_tax_id 3
countries 3
created_date 3
cretary_Vote 3
ct@@ 3
customer_address 3
customer_email 3
customer_type_code 3
d 3
dat@@ 3
date_incident_@@ 3
date_of_latest_@@ 3
datet@@ 3
day_Number 3
decision 3
department@@ 3
document_section@@ 3
dorm@@ 3
driverid 3
e_ID 3
eag@@ 3
eber" 3
ed 3
edication 3
election) 3
elegate 3
elevation) 3
employe@@ 3
employee_id) 3
employment 3
ence) 3
end 3
end_date 3
entr@@ 3
enzyme_id 3
er"; 3
ern@@ 3
es_in_Billion 3
event@@ 3
ew@@ 3
ex@@ 3
fi@@ 3
film@@ 3
floors) 3
forename 3
forms 3
game" 3
gdp 3
go@@ 3
good@@ 3
h 3
hall_of_fame 3
has_@@ 3
height) 3
height_feet 3
home_games) 3
i" 3
ia' 3
ic@@ 3
id' 3
id; 3
if@@ 3
il 3
in_percent) 3
incident@@ 3
incident_type_code 3
ind@@ 3
ing_Region_@@ 3
ing_system 3
injury 3
invested 3
ion) 3
ions 3
ir@@ 3
is_male 3
ist@@ 3
iv@@ 3
l@@ 3
lack@@ 3
launch 3
length_@@ 3
lerical 3
lesson_time) 3
level 3
location@@ 3
long) 3
machine 3
mail@@ 3
maintenance_contract_company_id 3
mal@@ 3
market_share 3
market_share) 3
max(Age) 3
max(Milliseconds) 3
max(T1.HS) 3
max(T2.fastestlapspeed) 3
max(capacity) 3
max(duration) 3
max(lat) 3
max(product_price) 3
max(rating) 3
me_@@ 3
mean_humidity 3
member_attendance 3
membership_register_branch) 3
merican@@ 3
met@@ 3
min(Milliseconds) 3
min(T1.@@ 3
min(T1.stars) 3
min(enr) 3
min(enrollment) 3
min(product_price) 3
min(revenue) 3
mode@@ 3
monthly_rental) 3
nat@@ 3
nau@@ 3
nickname 3
nt@@ 3
number_of_@@ 3
organization@@ 3
other_account_details 3
other_details 3
outcome_description 3
pages_per_minute_color 3
park@@ 3
participant_type_code 3
payment_date 3
payments 3
person) 3
player_coach 3
points 3
position 3
price) 3
problem@@ 3
product_quantity) 3
product_type_code) 3
products_for_hire 3
prominence 3
purcha@@ 3
purchase 3
raceid 3
range 3
raz@@ 3
red@@ 3
room_number 3
rou@@ 3
round 3
route 3
s"; 3
s%' 3
s_in_@@ 3
sales 3
school@@ 3
school_bus 3
score 3
se@@ 3
se_@@ 3
season 3
section@@ 3
sent_date 3
ses 3
shipment_tracking_number 3
sho@@ 3
size 3
skill_id 3
son@@ 3
speed_mp@@ 3
src_apid 3
ss 3
stars 3
state_province 3
status@@ 3
sum(T1.Num_of_stock) 3
sum(T1.amount) 3
sum(T1.crs_credit) 3
sum(T2.room_count) 3
sum(access_count) 3
sum(grant_amount) 3
supplier_@@ 3
suppliers 3
t%' 3
t1.Furniture_ID 3
t1.attribu@@ 3
t1.last_name 3
t1.pilot_id 3
t1.rou@@ 3
t1.title) 3
t2.Furniture_ID 3
t2.attribute_value 3
t2.authorder 3
t2.date_complaint_raised 3
t2.date_contact_to 3
t2.manufacturer_id 3
t2.position 3
t2.product_category_code 3
t2.product_details 3
t2.station_id 3
t2.train_id 3
t3.city_code 3
t3.individual_id 3
t3.individual_last_name 3
t4.country 3
t4.instid 3
t_@@ 3
temperature_f) 3
th" 3
total_passengers) 3
transaction 3
transaction@@ 3
transaction_type_description 3
trust 3
u@@ 3
ur@@ 3
used_kb) 3
vehicle_details 3
vision 3
wine 3
work_type 3
x" 3
y%" 3
years_working) 3
"6@@ 2
"AAC 2
"AC/D@@ 2
"AIB" 2
"AK@@ 2
"Aar@@ 2
"Acknowledgement@@ 2
"App@@ 2
"Awarde@@ 2
"B" 2
"BAL@@ 2
"Benjam@@ 2
"Bernie" 2
"Binders 2
"Bob 2
"CLE" 2
"CTO" 2
"CW@@ 2
"Canad@@ 2
"Cancel@@ 2
"Cash" 2
"Cat@@ 2
"Catholic" 2
"Cathrine" 2
"China" 2
"Chocol@@ 2
"Clar@@ 2
"Cleavant 2
"Com@@ 2
"Conglomerate" 2
"Demon 2
"Dup@@ 2
"Economic 2
"Eliot 2
"Florida" 2
"Grade@@ 2
"Graphic@@ 2
"HHH@@ 2
"HOU@@ 2
"HR@@ 2
"Harol@@ 2
"Howard" 2
"Japan@@ 2
"Jer@@ 2
"Jerem@@ 2
"Karson" 2
"Kent@@ 2
"King 2
"LG-P760@@ 2
"Labour 2
"Lake 2
"Life 2
"Long 2
"MG@@ 2
"Marry 2
"MasterCard" 2
"Matthi@@ 2
"Maudie 2
"NY@@ 2
"Nanjing 2
"Open@@ 2
"Pack@@ 2
"Pap@@ 2
"Peter 2
"Product 2
"Program 2
"Punk" 2
"Recluse 2
"Republic@@ 2
"Robin 2
"Rock@@ 2
"Santo 2
"Second 2
"Seed@@ 2
"Shanghai" 2
"Simon 2
"Smith@@ 2
"Spanish" 2
"St@@ 2
"Steph@@ 2
"Taizhou 2
"Team 2
"Temple" 2
"Teqnolog@@ 2
"Tex@@ 2
"Tillman 2
"Tokohu 2
"Tournam@@ 2
"Triumf@@ 2
"US 2
"US@@ 2
"Uen@@ 2
"Uniform@@ 2
"Upgrade 2
"West 2
"Zieme" 2
"advanced 2
"aut@@ 2
"cherv@@ 2
"data 2
"drum@@ 2
"english@@ 2
"enrico09@example.com@@ 2
"film 2
"food@@ 2
"game@@ 2
"laurel" 2
"luisg@embraer.com.br@@ 2
"mp@@ 2
"on-hold" 2
"operating 2
"photo@@ 2
"red" 2
"rem" 2
"slow@@ 2
"vbogisich@example.org@@ 2
"yellow@@ 2
% 2
%@@ 2
'%M@@ 2
'1989-04-24 2
'2003-04-19 2
'2005-08-23 2
'2016-03-15 2
'A 2
'AIRPORT 2
'ALA 2
'Amisulpride' 2
'Aripiprazole@@ 2
'Armani@@ 2
'Biolog@@ 2
'CACHEbox' 2
'Canad@@ 2
'Chin@@ 2
'Cut@@ 2
'Cytosol@@ 2
'GT@@ 2
'Graph 2
'HUNGER 2
'Heme@@ 2
'Iceland@@ 2
'Initial 2
'Initial@@ 2
'King 2
'Knee 2
'Matter 2
'Meaghan@@ 2
'N@@ 2
'NY@@ 2
'No 2
'Noel 2
'Orbit@@ 2
'Priv@@ 2
'Private 2
'Sigma' 2
'Smith@@ 2
'Sponsor@@ 2
'Spr@@ 2
'Success@@ 2
'Thompson' 2
'W@@ 2
'Walter 2
'Y@@ 2
'Yale 2
'Yes' 2
'engine@@ 2
'mid@@ 2
'omnis' 2
'yellow' 2
-01" 2
-11@@ 2
-50 2
-@@ 2
. 2
.@@ 2
/@@ 2
00:33:18@@ 2
02:06:0@@ 2
07:13:5@@ 2
08/30/201@@ 2
102@@ 2
1121 2
11@@ 2
13000 2
14 2
15:06:20' 2
171 2
1880 2
1885 2
1890 2
1900 2
192@@ 2
1935 2
193@@ 2
1960 2
1985 2
1986-11-1@@ 2
198@@ 2
1998 2
199@@ 2
2-06-2@@ 2
2000000 2
2009-01@@ 2
2010@@ 2
2016@@ 2
2018 2
2018-03-17 2
201@@ 2
20@@ 2
220 2
23:51:54@@ 2
24251896@@ 2
254 2
255 2
26@@ 2
3.8 2
30.3 2
37 2
37@@ 2
4500@@ 2
5600 2
57.@@ 2
7000 2
70000 2
7017@@ 2
8.@@ 2
862 2
874@@ 2
90000 2
93 2
93000 2
9400@@ 2
94107@@ 2
9410@@ 2
9:2@@ 2
:00:@@ 2
@@ 2
A 2
ABOZ@@ 2
AC@@ 2
AN@@ 2
APPELLA@@ 2
ARR@@ 2
AW@@ 2
A_@@ 2
Accredit@@ 2
Aircraft@@ 2
All_@@ 2
Allergy@@ 2
Aly@@ 2
Amount_Pay@@ 2
Ann@@ 2
Anonymous 2
Anth@@ 2
Apartment_Facil@@ 2
Application@@ 2
Artist@@ 2
Artist_ID 2
Artwork_ID 2
Assigned@@ 2
Attraction_Type_Code 2
B 2
Beach 2
Before 2
Bir@@ 2
Book' 2
Budget_@@ 2
C 2
C" 2
CE@@ 2
CONRA@@ 2
COUNT(@@ 2
CR@@ 2
CV' 2
CV@@ 2
Camer@@ 2
Can@@ 2
Cas@@ 2
Catalog_@@ 2
Cla@@ 2
Cle@@ 2
Club_ID 2
Cob@@ 2
Com@@ 2
Company 2
Compet@@ 2
Comput@@ 2
Corporation" 2
Count@@ 2
County_ID 2
Cresc@@ 2
Customer_id 2
Customers_@@ 2
DNO 2
Database 2
De@@ 2
Dec 2
Delivery_@@ 2
Derrick@@ 2
Dis@@ 2
Distric@@ 2
Documents_with_@@ 2
Doming@@ 2
Donor 2
Donor@@ 2
Dorian@@ 2
EN@@ 2
ET@@ 2
Ernser@@ 2
Events 2
Exp@@ 2
Express" 2
F' 2
Failure@@ 2
Financ@@ 2
Financial_@@ 2
Fosse" 2
Furniture_ID 2
Geome@@ 2
Geovannyton@@ 2
German@@ 2
Go: 2
Gra@@ 2
HRISS@@ 2
Hamburg@@ 2
Has_@@ 2
Helen@@ 2
Hill@@ 2
IL@@ 2
ING@@ 2
INTRODUCTION 2
IT@@ 2
Id 2
Inc@@ 2
Instruct@@ 2
Insuranc@@ 2
International_Passeng@@ 2
Jam@@ 2
James 2
Japan" 2
Jiangsu 2
Jon@@ 2
Julianaside@@ 2
Junction@@ 2
K" 2
Kaitlyn 2
Kiss 2
Kitty 2
Knolls@@ 2
LA@@ 2
LITERAC@@ 2
LOC@@ 2
Lab@@ 2
Latte@@ 2
Lew@@ 2
Lieutenant@@ 2
Live 2
MAX@@ 2
MIN@@ 2
Mar@@ 2
Martinez@@ 2
Matters" 2
Meet@@ 2
Mem@@ 2
Milliseconds) 2
Mobile 2
Model_name 2
Movi@@ 2
NAME 2
NO@@ 2
Num_of_Audi@@ 2
Number_of_@@ 2
ONDERSM@@ 2
OR@@ 2
ORDON@@ 2
ORI@@ 2
OWN@@ 2
Oct 2
Office_@@ 2
Offici@@ 2
Order_@@ 2
Organiz@@ 2
Orton" 2
Ottilie 2
POLLOCK' 2
Paralla@@ 2
Party_ID 2
Passeng@@ 2
Pay@@ 2
Per@@ 2
Player_ID 2
Pos 2
Primar@@ 2
Pro@@ 2
Programm@@ 2
Project@@ 2
Puzzling 2
Quantity) 2
RA@@ 2
RAC@@ 2
RAM_MiB 2
RE 2
RESIDENT_Vote 2
ROOF' 2
Rag@@ 2
Railway_ID 2
Region@@ 2
Representativ@@ 2
Representative_ID 2
Response' 2
Restaurant@@ 2
Rog@@ 2
S" 2
SCIENCE@@ 2
SEL@@ 2
SELBI@@ 2
SES 2
SSN 2
STUDE@@ 2
SUM(@@ 2
S_@@ 2
Sal@@ 2
Samuel' 2
Sc@@ 2
Scen@@ 2
Shea 2
Sho@@ 2
Spielberg@@ 2
Spit@@ 2
Sport@@ 2
Sports@@ 2
Squ@@ 2
Start@@ 2
Stat@@ 2
Statistic@@ 2
Steven 2
Stocking@@ 2
Student_Course_Enrol@@ 2
Suppliers 2
System@@ 2
T1.A@@ 2
T1.Date_Claim@@ 2
T1.EMP@@ 2
T1.F@@ 2
T1.emp_@@ 2
T1.team_id@@ 2
T2.J@@ 2
T2.Scor@@ 2
T2.W@@ 2
T2.order_@@ 2
T2.p@@ 2
TN@@ 2
TO 2
TRANSAC@@ 2
TS 2
Talent 2
Time' 2
Ton@@ 2
Total_@@ 2
Tourist_Attraction@@ 2
Tourist_ID 2
Trans@@ 2
Transaction@@ 2
Type_Code 2
Type_Description 2
Unboun@@ 2
Unit@@ 2
UnitPrice) 2
University@@ 2
V" 2
VD 2
VICE_P@@ 2
Visit@@ 2
Vivi@@ 2
White 2
William@@ 2
Win@@ 2
Woodroffe" 2
Y 2
YEAR@@ 2
Year@@ 2
Years_@@ 2
York 2
York@@ 2
You 2
Zhejiang 2
_Estimate 2
_M@@ 2
_Made 2
_N@@ 2
_Name 2
_Passeng@@ 2
_Vote 2
_amount 2
_b@@ 2
_data_type 2
_from 2
_p@@ 2
_s@@ 2
_to 2
_type_description 2
a) 2
ab@@ 2
acID 2
access_count) 2
account_details 2
achin@@ 2
acqui@@ 2
activities 2
activity_name 2
ad 2
affili@@ 2
age@@ 2
age_@@ 2
ai" 2
ail@@ 2
ain@@ 2
al%" 2
album@@ 2
algar@@ 2
all_@@ 2
allerg@@ 2
allergy@@ 2
alter 2
ame@@ 2
amen@@ 2
amianfor@@ 2
amount_of_transaction) 2
amp@@ 2
an_@@ 2
anag@@ 2
anc@@ 2
and@@ 2
andings 2
aniel 2
apit@@ 2
appoint@@ 2
approv@@ 2
ar_@@ 2
arah 2
ardw@@ 2
are@@ 2
area 2
ark@@ 2
arket_@@ 2
arol 2
arriv@@ 2
artist@@ 2
as' 2
as@@ 2
assess@@ 2
asset@@ 2
ast 2
ast" 2
atabase@@ 2
ate" 2
ate_@@ 2
ated" 2
ated_@@ 2
ation@@ 2
ation_date 2
ative 2
ault_@@ 2
ault_log_entry_id 2
auth@@ 2
authorder 2
avg(G@@ 2
award 2
ay" 2
basePrice) 2
basketball_@@ 2
bath@@ 2
bats 2
be@@ 2
beds 2
bi@@ 2
bik@@ 2
bit@@ 2
block@@ 2
booked_@@ 2
booking_@@ 2
bookings 2
branch) 2
branch_id 2
bum 2
cEw@@ 2
cam@@ 2
candidat@@ 2
cann@@ 2
captain@@ 2
catalog_entr@@ 2
cel@@ 2
cell_mobile@@ 2
characteristic_id 2
check@@ 2
chromosome 2
cis@@ 2
city_p@@ 2
clai@@ 2
claim_status@@ 2
claims_@@ 2
claims_process@@ 2
class 2
classroom@@ 2
climber@@ 2
clos@@ 2
club_id 2
coach@@ 2
college_id 2
color_description 2
commission_p@@ 2
compan@@ 2
company@@ 2
compatible@@ 2
completion 2
component 2
composer 2
contact@@ 2
contract@@ 2
cop@@ 2
count 2
count) 2
count@@ 2
coupon@@ 2
course_@@ 2
course_description 2
court@@ 2
credit@@ 2
csu_fe@@ 2
ctible 2
customer@@ 2
dail@@ 2
dam@@ 2
damage_millions_@@ 2
dar@@ 2
day@@ 2
de 2
defianc@@ 2
den" 2
depart@@ 2
department_@@ 2
dependent 2
des 2
dew_point_@@ 2
dex 2
di@@ 2
direct@@ 2
distance) 2
distric@@ 2
dit 2
dit@@ 2
document_code 2
document_structure@@ 2
don@@ 2
driv@@ 2
driver@@ 2
dst_@@ 2
dustr@@ 2
e') 2
ed_in 2
eeks_on_Top) 2
eel@@ 2
egative 2
eirich" 2
eleted 2
elici@@ 2
elimin@@ 2
emp_fname 2
ence 2
end_@@ 2
english@@ 2
enn@@ 2
ennsylvani@@ 2
enr) 2
enr@@ 2
enroll_grade 2
ent@@ 2
ent_@@ 2
entrepreneur@@ 2
ents 2
ere@@ 2
erk 2
ers' 2
ervic@@ 2
es" 2
es_@@ 2
es_bill@@ 2
esi@@ 2
esp@@ 2
est@@ 2
estim@@ 2
estimate 2
events 2
ey" 2
f) 2
femal@@ 2
festival@@ 2
fferential 2
file@@ 2
film_market_@@ 2
fin@@ 2
floor 2
functional_area@@ 2
game_id 2
games) 2
gand@@ 2
gas' 2
gen@@ 2
gend@@ 2
genre 2
gentin@@ 2
goali@@ 2
grade@@ 2
gradu@@ 2
grant_amount) 2
guest_first_name 2
gust@@ 2
h" 2
hanewal 2
heck@@ 2
hicag@@ 2
hip_@@ 2
hire@@ 2
histor@@ 2
ho@@ 2
hori" 2
hotel@@ 2
humid@@ 2
ial_@@ 2
ibbons" 2
icha@@ 2
ichael 2
ick@@ 2
ids 2
ike@@ 2
ill@@ 2
ilm@@ 2
im@@ 2
in_Bill@@ 2
inc@@ 2
ince_@@ 2
incorpor@@ 2
index 2
individual_id 2
ing_Reg@@ 2
injur@@ 2
institution_id 2
instruct@@ 2
int@@ 2
invoice_@@ 2
ion_@@ 2
ip@@ 2
ist 2
ists 2
iti@@ 2
ition 2
ition@@ 2
ity_@@ 2
izont@@ 2
job@@ 2
job_@@ 2
join@@ 2
journalist@@ 2
journalist_ID 2
kids 2
king 2
l 2
l" 2
l_name 2
label@@ 2
lace 2
lage 2
lanc@@ 2
language 2
lat) 2
lat@@ 2
lead@@ 2
leasonmou@@ 2
led 2
lef@@ 2
length@@ 2
lenn@@ 2
lete@@ 2
lex@@ 2
ley" 2
lic@@ 2
lien@@ 2
loan_type 2
loans 2
log_entr@@ 2
long 2
low@@ 2
lume" 2
maj@@ 2
manufactur@@ 2
market_@@ 2
mascot 2
master_@@ 2
match@@ 2
match_@@ 2
mate 2
maxOccup@@ 2
me@@ 2
med) 2
med@@ 2
medicine_id 2
membership_@@ 2
meric@@ 2
metow@@ 2
mill@@ 2
milliseconds 2
min@@ 2
mission@@ 2
monthly_@@ 2
mov@@ 2
ms 2
museum@@ 2
n 2
n" 2
natch 2
network@@ 2
nex@@ 2
no@@ 2
notes 2
number_@@ 2
oc@@ 2
ockmanfur@@ 2
of_ceremony 2
ohl@@ 2
oisalon@@ 2
okyo 2
om@@ 2
omin@@ 2
omination 2
onadic@@ 2
ont@@ 2
oodric@@ 2
op@@ 2
opulation 2
or' 2
orad@@ 2
order@@ 2
organisation_type 2
orgi@@ 2
ork@@ 2
orok@@ 2
ors 2
ortg@@ 2
orth 2
orthridg@@ 2
ot@@ 2
ote@@ 2
overnment@@ 2
overnor 2
owner 2
p_code 2
part@@ 2
party_email 2
pass@@ 2
patient@@ 2
payment@@ 2
pen@@ 2
people@@ 2
percent@@ 2
person@@ 2
photo@@ 2
pilot@@ 2
pixels 2
play@@ 2
playlist@@ 2
playlist_id 2
porphyria 2
pose_@@ 2
pr@@ 2
precipit@@ 2
prereq_id 2
price_@@ 2
primary_conference 2
product_categor@@ 2
profit@@ 2
project@@ 2
property_id 2
prote@@ 2
pt@@ 2
qu@@ 2
quantity 2
quantity) 2
ragu@@ 2
ram@@ 2
rank@@ 2
rating_@@ 2
recei@@ 2
receiv@@ 2
rector 2
reenland@@ 2
region@@ 2
registr@@ 2
repair_assign@@ 2
reports_@@ 2
resident_@@ 2
residents 2
respon@@ 2
ri@@ 2
ric@@ 2
riend@@ 2
rinc@@ 2
rittany 2
rizon@@ 2
role@@ 2
room_count 2
rooms 2
ross_@@ 2
rows@@ 2
royed_by_Employee_ID 2
s)@@ 2
s.@@ 2
s_billion 2
s_in_Events 2
saving@@ 2
school_@@ 2
scientist@@ 2
se' 2
series 2
service_@@ 2
service_id 2
service_type_code 2
sh" 2
shar@@ 2
share_@@ 2
shipping_@@ 2
shipping_agent@@ 2
shops 2
sk@@ 2
skill@@ 2
son" 2
source_@@ 2
spec@@ 2
speed 2
standings 2
stanley.monahan@example.org@@ 2
star 2
star_@@ 2
statement_id 2
station_@@ 2
statistic@@ 2
status_code 2
stay@@ 2
stock@@ 2
struct@@ 2
structure" 2
sts 2
stu_lname 2
student_@@ 2
sum(hour@@ 2
supplier_phone 2
support_@@ 2
support_rate 2
sus@@ 2
synthase' 2
system" 2
t1.club@@ 2
t2.date_@@ 2
ta' 2
tal@@ 2
te@@ 2
teach@@ 2
team) 2
team_franchise 2
technician_ID 2
tel_Star_Ratings 2
temperature_f 2
test_taken 2
th 2
thes' 2
ticket_price) 2
ties 2
time" 2
to") 2
to' 2
tot_cred 2
total_@@ 2
total_amount_purchased 2
total_amount_purchased) 2
total_passengers 2
total_pounds) 2
tr@@ 2
track@@ 2
train_number 2
transaction_amount 2
transaction_type) 2
transactions) 2
tru@@ 2
tructure 2
try') 2
tweets) 2
type 2
typical_selling_price 2
uba' 2
ubmission_ID 2
udie"; 2
ue 2
uels" 2
ues") 2
uk_vat@@ 2
um@@ 2
ummy%" 2
un@@ 2
unctional%" 2
undergraduate) 2
unit_price 2
unsure_rate 2
unsure_rate) 2
upport_rate 2
uration 2
urchase_@@ 2
ure_Details 2
ure_authorised_by_staff_id 2
ure_date 2
url 2
uros) 2
urse 2
us@@ 2
usan" 2
user_name 2
usic' 2
usical_ID 2
usiness' 2
vatar' 2
ve%" 2
velocity 2
ver) 2
vers" 2
visibility_miles) 2
votes 2
w 2
w" 2
w@@ 2
w_times_per_day) 2
ward" 2
week 2
weight) 2
width 2
wifi 2
wind_@@ 2
wins) 2
witzerland" 2
word 2
working 2
working) 2
workshop 2
worldwide 2
wrau%" 2
y') 2
yCard 2
yID 2
y_conference 2
y_description 2
y_hire_cost 2
y_id 2
y_name 2
y_name) 2
y_number) 2
yah" 2
yal_Famil@@ 2
yearid; 2
yland" 2
ysanne" 2
zer" 2
"199@@ 1
"Bernh@@ 1
"Cre@@ 1
"Glenn" 1
"Goo@@ 1
"Jo@@ 1
"Mal@@ 1
"Rob@@ 1
"Ry@@ 1
"Sawayn@@ 1
"Univers@@ 1
"Z@@ 1
"don@@ 1
"film@@ 1
'1989-0@@ 1
'Austin@@ 1
'He@@ 1
'Midshipman@@ 1
-06@@ 1
-08-2@@ 1
-19 1
.com@@ 1
02@@ 1
09@@ 1
0@@ 1
112@@ 1
190@@ 1
1986@@ 1
2.@@ 1
2004@@ 1
3-1@@ 1
300@@ 1
30@@ 1
33@@ 1
34@@ 1
7:@@ 1
:2@@ 1
:5@@ 1
:@@ 1
ALB@@ 1
AS@@ 1
AT@@ 1
Advis@@ 1
Aircraft_ID 1
Airport@@ 1
Am@@ 1
At@@ 1
Atla@@ 1
Attribut@@ 1
B) 1
Birth@@ 1
Birth_P@@ 1
Bo@@ 1
Budg@@ 1
CHA@@ 1
CMI@@ 1
CO@@ 1
CON@@ 1
COR@@ 1
CT@@ 1
CTION 1
CTS 1
Catalo@@ 1
Ch@@ 1
Colleg@@ 1
Cre@@ 1
Den@@ 1
Documents_@@ 1
Draf@@ 1
ENROLLED@@ 1
Employees@@ 1
Eng@@ 1
Engineer_@@ 1
English@@ 1
Express@@ 1
Fault_Lo@@ 1
Film@@ 1
Fin@@ 1
Georgi@@ 1
Gr@@ 1
Group@@ 1
HER@@ 1
HS@@ 1
Hardware_@@ 1
How 1
In 1
Indi@@ 1
Indiana 1
Inj@@ 1
Int@@ 1
Investor_details 1
Iss@@ 1
Januar@@ 1
John 1
LE" 1
LEN@@ 1
LES 1
Last@@ 1
Launch@@ 1
Location@@ 1
Location_@@ 1
London@@ 1
M) 1
MATC@@ 1
ME@@ 1
MENT@@ 1
MERS 1
MI@@ 1
Ma@@ 1
Market_@@ 1
Mass@@ 1
Me@@ 1
Mo@@ 1
Mode@@ 1
NY@@ 1
Number 1
Ord@@ 1
PRODU@@ 1
Participant_ID 1
People@@ 1
Phon@@ 1
Pi@@ 1
Pilo@@ 1
Player_@@ 1
Position 1
Public@@ 1
Publish@@ 1
Qu@@ 1
RES@@ 1
ROF@@ 1
Rate 1
Re@@ 1
Reg@@ 1
Regular@@ 1
Representat@@ 1
Requ@@ 1
Research@@ 1
Ret@@ 1
SUM@@ 1
Sales_bill@@ 1
Sh@@ 1
Software_P@@ 1
Song@@ 1
Starting_@@ 1
Store_@@ 1
Store_Name 1
T1.part@@ 1
T2.camera_len@@ 1
T2.prof_@@ 1
TER@@ 1
Team@@ 1
Team_id 1
Tot@@ 1
Type; 1
Type_@@ 1
Un@@ 1
Univers@@ 1
University 1
V' 1
VI@@ 1
VOTE 1
Vot@@ 1
Wh@@ 1
X@@ 1
_Date 1
_Mi@@ 1
_NUM 1
_Number 1
_Senator_@@ 1
_c@@ 1
_cross_re@@ 1
_fe@@ 1
_feet 1
_type) 1
a%" 1
a%' 1
acc@@ 1
acc_bal) 1
accept@@ 1
ack@@ 1
active_@@ 1
address@@ 1
adi@@ 1
advis@@ 1
af@@ 1
ages 1
ale" 1
alid 1
all@@ 1
am 1
amenid 1
ames 1
amount) 1
amount_of_@@ 1
amount_p@@ 1
amount_pi@@ 1
ance) 1
ancel@@ 1
anim@@ 1
ank@@ 1
ans@@ 1
app@@ 1
ar 1
are 1
are_@@ 1
arket@@ 1
arrears 1
arri@@ 1
ash@@ 1
ason 1
ass@@ 1
aster@@ 1
ates 1
ath@@ 1
ation" 1
ational@@ 1
ations 1
au@@ 1
ault_log_entr@@ 1
av@@ 1
available 1
avg(price_@@ 1
away@@ 1
ay 1
balance 1
ball_@@ 1
ban@@ 1
base@@ 1
bedroom_count 1
bel 1
bil@@ 1
bill@@ 1
bo@@ 1
body_@@ 1
book@@ 1
brand 1
bu@@ 1
build@@ 1
camp@@ 1
capac@@ 1
card@@ 1
cat@@ 1
catalog_@@ 1
ch 1
chan@@ 1
charg@@ 1
church@@ 1
cinema@@ 1
circuitid 1
city@@ 1
ck@@ 1
claim_@@ 1
claimed 1
claims 1
class_code 1
cli@@ 1
clo@@ 1
club_@@ 1
code 1
code@@ 1
colle@@ 1
color@@ 1
committe@@ 1
competition@@ 1
cor@@ 1
core) 1
cre@@ 1
crs_@@ 1
crs_credit) 1
ction 1
ctiv@@ 1
cur@@ 1
d_by_staff_id 1
d_code 1
date_assigned_@@ 1
debate_@@ 1
decor@@ 1
dept_address 1
detail@@ 1
dis@@ 1
dn@@ 1
dol@@ 1
donat@@ 1
e_number 1
ec@@ 1
ed' 1
ed_mp@@ 1
ee@@ 1
ele@@ 1
eleg@@ 1
ell 1
els 1
ely 1
ember@@ 1
eme 1
employ@@ 1
en 1
enc@@ 1
ender 1
endow@@ 1
engineer_id 1
enroll@@ 1
enrollment) 1
enrollments 1
er 1
erb@@ 1
ert@@ 1
ervice_Type_Code 1
esc@@ 1
est 1
et 1
farm_@@ 1
ferences 1
fess@@ 1
ff@@ 1
ffe@@ 1
ffirmative 1
fo@@ 1
furniture_manufact@@ 1
ga@@ 1
ght 1
gold 1
grant_@@ 1
grants 1
gu@@ 1
ha@@ 1
happy_@@ 1
he 1
head_id 1
heckIn 1
high_degree 1
home_@@ 1
hop_ID 1
hop_Name 1
host_city 1
hour@@ 1
i 1
ic 1
ide@@ 1
ig@@ 1
ight@@ 1
igns 1
ils 1
ime 1
in_name 1
incident_@@ 1
inf@@ 1
inn@@ 1
institution@@ 1
inter@@ 1
inventory_id 1
invoic@@ 1
iolog@@ 1
iram@@ 1
irstName 1
iss@@ 1
it 1
ity@@ 1
ive 1
j@@ 1
je@@ 1
ject@@ 1
jor 1
journal_@@ 1
ke@@ 1
kill@@ 1
ks 1
lac@@ 1
lack 1
lan@@ 1
land 1
land" 1
lar 1
launch@@ 1
le 1
left_@@ 1
ler@@ 1
less@@ 1
lesson@@ 1
ley 1
lie@@ 1
lin@@ 1
line 1
lines 1
liver@@ 1
loc@@ 1
location_id 1
log@@ 1
lor@@ 1
lots 1
ls@@ 1
ly@@ 1
m 1
m" 1
mailshot_@@ 1
main_@@ 1
maintenance_contract_id 1
make 1
manage@@ 1
master_customer_id 1
matches 1
max(S@@ 1
med 1
media_typ@@ 1
member_@@ 1
ment 1
metho@@ 1
mid@@ 1
mil@@ 1
mith@@ 1
mont@@ 1
morn@@ 1
mp@@ 1
mult@@ 1
nam@@ 1
name, 1
national@@ 1
nc@@ 1
ne@@ 1
news_@@ 1
ning_@@ 1
ning_Aircraft 1
nomin@@ 1
num@@ 1
number 1
number) 1
o_@@ 1
ob@@ 1
ock@@ 1
ok 1
om 1
ome 1
on 1
onc@@ 1
ond@@ 1
one 1
ons 1
oo@@ 1
ood 1
oot@@ 1
op" 1
open@@ 1
opened 1
operat@@ 1
ord@@ 1
org@@ 1
ork 1
orld 1
oss@@ 1
otes 1
ouis@@ 1
ounded 1
our@@ 1
outco@@ 1
overall_@@ 1
overn@@ 1
pages_per_minute_@@ 1
par@@ 1
participant@@ 1
pay@@ 1
payment_metho@@ 1
pende@@ 1
per@@ 1
percentage 1
perpetrat@@ 1
phon@@ 1
phone_@@ 1
phy@@ 1
pilot_id 1
plac@@ 1
plat@@ 1
platforms 1
player_@@ 1
po@@ 1
point@@ 1
polici@@ 1
policy 1
ponsor@@ 1
post@@ 1
pp@@ 1
pre@@ 1
premis@@ 1
pri@@ 1
primar@@ 1
program@@ 1
promin@@ 1
propert@@ 1
publish@@ 1
rama 1
ran@@ 1
ranc@@ 1
rand 1
rears 1
reasur@@ 1
recor@@ 1
recorde@@ 1
red 1
reg@@ 1
relation@@ 1
ren@@ 1
rent@@ 1
report@@ 1
reserv@@ 1
residence 1
resident@@ 1
result 1
rib@@ 1
ridg@@ 1
riend 1
right@@ 1
rin@@ 1
rit@@ 1
riv@@ 1
ross@@ 1
s_bill@@ 1
schedu@@ 1
scho@@ 1
score@@ 1
screen_@@ 1
se 1
season@@ 1
seat@@ 1
sed 1
sed) 1
servic@@ 1
shop@@ 1
si@@ 1
side@@ 1
snatch 1
son 1
source_system@@ 1
sport@@ 1
st_city_ID 1
stadium@@ 1
stadium_id 1
staff@@ 1
staff_id 1
staff_name 1
star@@ 1
start_@@ 1
starts 1
state@@ 1
stname 1
stop" 1
store_@@ 1
store_name 1
stre@@ 1
su@@ 1
subject_name 1
sum(t2.@@ 1
surname 1
swimmer_id 1
tar@@ 1
temp@@ 1
th@@ 1
thal@@ 1
thapuri 1
thiop@@ 1
time 1
title_code 1
to" 1
to) 1
to_@@ 1
ton@@ 1
top@@ 1
total@@ 1
tradition@@ 1
train@@ 1
train_@@ 1
trucks 1
type_@@ 1
ubowitz@@ 1
ue_@@ 1
ues 1
uite 1
ul@@ 1
ular@@ 1
ultz@@ 1
uman 1
und 1
uni@@ 1
univers@@ 1
urden 1
ure 1
ure@@ 1
urr@@ 1
urs 1
uruvayur 1
used_k@@ 1
usic 1
usiness@@ 1
uss@@ 1
ust@@ 1
ustrali@@ 1
ut 1
val@@ 1
ve@@ 1
vi@@ 1
vil@@ 1
ville" 1
visibility_@@ 1
vision@@ 1
volume@@ 1
vsk@@ 1
war@@ 1
way@@ 1
wedd@@ 1
wich@@ 1
wif@@ 1
with 1
work 1
working@@ 1
xels 1
xonMo@@ 1
xt 1
y_ID 1
ybo@@ 1
year_@@ 1
years_@@ 1
yla" 1
yle" 1
ym@@ 1
yman@@ 1
you@@ 1
z@@ 1
zeiler' 1
madeupword0000 0
